00000000000000000000000000011001
00000000000010010010100000011001
00000000011100011111111111111001
00000100000000000000000101011001
00000000000000000000000000111001
00011111111111000010000000011001
00000000110111100000000010011001
00011010100000000000001010011001
00000000000000000000000001011001
00011111111111001100000000011001
00000000101110000000000000111001
00000000100000000001010101011001
00000000000000000000000001111001
00000000000001010010011111111001
00011110101011011111111111111001
00000101011111111111101001011001
00000000000000000000000010011001
00011111111111100111100000011001
00000010100100011111111111111001
00011000000000000010010111111001
00000000000000000000000010111001
00000000000000100101000000011001
00000001101001000000000000111001
00010101000000000001000010011001
00000000000000000000000011011001
00000000000000110111000000011001
00000000010001011111111111111001
00011111000000000010001110011001
00000000000000000000000011111001
00000000000001010101111111111001
00011111111111111111111100011001
00010000000000000001001110011001
00000000000000000000000100011001
00011111111111100101100000011001
00000000000110000000000001011001
00000101100000000000010011011001
00000000000000000000000100111001
00011111111111000101111111111001
00011111110101000000000000011001
00000001111111111111111110111001
00000000000000000000000101011001
00011111111110101001011111111001
00011111110111000000000000111001
00011011111111111111101110111001
00000000000000000000000101111001
00011111111101001010100000011001
00000010000111000000000001111001
00000010000000000001101101111001
00000000000000000000000110011001
00011111111101101001111111111001
00011111110100011111111111111001
00001010011111111111011011111001
00000000000000000000000110111001
00011111111111000111011111111001
00011111010101100000000000111001
00001101000000000010001011111001
00000000000000000000000111011001
00000000000001001100111111111001
00011111101011111111111111011001
00011000100000000000010001111001
00000000000000000000000111111001
00000000000001111011000000011001
00000001100100111111111111111001
00011101000000000001100110111001
00000000000000000000001000011001
00000000000000110000000000011001
00000000111111011111111111111001
00000100111111111101010100011001
00000000000000000000001000111001
00000000000000101011100000011001
00000000001110000000000000011001
00000101100000000010011001111001
00000000000000000000001001011001
00011111111111000011100000011001
00000001000010111111111111011001
00010011011111111110111011011001
00000000000000000000001001111001
00011111111111110110011111111001
00011110101000111111111111011001
00000000000000000010010011011001
00000000000000000000001010011001
00011111111110110101100000011001
00000001101110000000000001011001
00000101011111111111001011011001
00000000000000000000001010111001
00000000000001110011111111111001
00011111010110000000000000111001
00000000011111111111000001011001
00000000000000000000001011011001
00000000000001100011000000011001
00000001101111111111111111111001
00001011011111111111100011011001
00000000000000000000001011111001
00011111111111011010000000011001
00000001100001100000000000011001
00001000100000000001100010111001
00000000000000000000001100011001
00000000000000000010000000011001
00000010110000000000000000011001
00000000111111111100101111011001
00000000000000000000001100111001
00011111111110111110100000011001
00000001000001000000000000111001
00011110111111111110111100011001
00000000000000000000001101011001
00000000000001101000000000011001
00000000000010100000000011111001
00010111111111111110101000011001
00000000000000000000001101111001
00000000000000010110111111111001
00011111011001111111111111011001
00001110111111111111101101011001
00000000000000000000001110011001
00011111111110101110000000011001
00000000100001011111111111111001
00001000011111111111001111011001
00000000000000000000001110111001
00000000000000110011000000011001
00000001101101000000000000111001
00000110100000000001110010011001
00000000000000000000001111011001
00011111111110011010100000011001
00000010001110111111111111011001
00000110100000000000100010011001
00000000000000000000001111111001
00011111111111010010000000011001
00000010011010000000000000011001
00001011011111111111011100111001
00000000000000000000010000011001
00011111111100101101111111111001
00011111100001011111111111111001
00001001100000000000100111011001
00000000000000000000010000111001
00000000000010010111000000011001
00000000010100000000000000111001
00001111000000000001011001011001
00000000000000000000010001011001
00000000000000101110100000011001
00000000110110100000000000011001
00010111111111111111001001011001
00000000000000000000010001111001
00000000000000111001100000011001
00000000110100100000000001011001
00011010000000000001110010111001
00000000000000000000010010011001
00000000000000101111100000011001
00000001010011100000000000011001
00011000111111111111111100011001
00000000000000000000010010111001
00000000000010000011100000011001
00000010001111100000000001111001
00001011011111111001110101011001
00000000000000000000010011011001
00000000000001010011011111111001
00011111010000100000000001011001
00000011000000000001011110111001
00000000000000000000010011111001
00000000000001111010100000011001
00000001111000111111111110111001
00010111000000000000100101111001
00000000000000000000010100011001
00000000000001001101100000011001
00000001111101000000000010011001
00010110000000000000001101011001
00000000000000000000010100111001
00000000000000100011011111111001
00011111111011000000000000111001
00001100000000000001100111011001
00000000000000000000010101011001
00011111111110101011100000011001
00000001001010100000000000011001
00000011000000000001011111011001
00000000000000000000010101111001
00011111111111100010100000011001
00000010011011000000000000011001
00011110111111111111101100011001
00000000000000000000010110011001
00011111111111110011111111111001
00011111101000111111111111111001
00011101111111111111110101111001
00000000000000000000010110111001
00000000000000110001000000011001
00000000111001000000000001111001
00000000100000000010010001011001
00000000000000000000010111011001
00000000000000011101000000011001
00000010011101111111111110111001
00000001100000000000100100011001
00000000000000000000010111111001
00000000000001111111000000011001
00000001001111111111111111111001
00010010011111111101011100111001
00000000000000000000011000011001
00011111111110100000100000011001
00000000001110111111111110111001
00010111100000000000101100111001
00000000000000000000011000111001
00000000000000111111100000011001
00000010011110100000000000011001
00000110111111111101011110011001
00000000000000000000011001011001
00011111111111011101000000011001
00000010001010100000000000111001
00010100011111111100110100011001
00000000000000000000011001111001
00011111111111011010111111111001
00011111100110011111111111011001
00010011100000000001011011011001
00000000000000000000011010011001
00000000000010100001011111111001
00011111001000111111111111011001
00010101011111111101111000111001
00000000000000000000011010111001
00000000000000000001011111111001
00011111101101111111111111011001
00011100000000000000111101011001
00000000000000000000011011011001
00000000000000111100100000011001
00000000111010100000000000111001
00000111100000000001001011011001
00000000000000000000011011111001
00000000000000100001100000011001
00000000001011100000000001011001
00000110000000000000010101111001
00000000000000000000011100011001
00000000000001010100000000011001
00000001000100000000000010011001
00000000000000000000101010011001
00000000000000000000011100111001
00000000000000101000000000011001
00000001110001000000000010011001
00011111000000000000110001111001
00000000000000000000011101011001
00011111111111110011000000011001
00000001001010000000000010111001
00011010011111111110101100111001
00000000000000000000011101111001
00000000000011010100011111111001
00011111111000111111111110011001
00011100100000000000010110011001
00000000000000000000011110011001
00000000000000010000011111111001
00011111000100000000000010011001
00001001111111111111110000111001
00000000000000000000011110111001
00011111111111010100111111111001
00011111100000100000000001011001
00000011100000000010010101111001
00000000000000000000011111011001
00011111111111110100100000011001
00000001100100000000000000011001
00011111000000000001010010111001
00000000000000000000011111111001
00000000000010011000000000011001
00000001100011100000000001111001
00001001100000000000001010111001
00000000000000000000100000011001
00000000000010000000111111111001
00011111100010000000000000011001
00010100111111111011100010111001
00000000000000000000100000111001
00000000000010101011100000011001
00000000011101111111111111011001
00011111111111111011111101011001
00000000000000000000100001011001
00011111111111011111000000011001
00000001001101000000000001111001
00001111000000000000011010111001
00000000000000000000100001111001
00011111111111110110100000011001
00000000100010100000000010011001
00010001100000000010100000111001
00000000000000000000100010011001
00000000000000001111111111111001
00011111110001111111111101011001
00011000000000000001110100111001
00000000000000000000100010111001
00000000000000000000000000011001
00000000000000000000000000011001
00000000000000000001010001011001
