00000000000000000000000000000001
00011111111111010010111111100001
00011111101001011111111110100001
00000100011111111110101100100001
00000000000000000000000000100001
00011111111111100001111111100001
00011111110011011111111111100001
00010000011111111110111011100001
00000000000000000000000001000001
00011111111111011011011111100001
00011111001100111111111111000001
00001111011111111111110111100001
00000000000000000000000001100001
00011111111110101101111111100001
00011110111111111111111110100001
00001101011111111111011001000001
00000000000000000000000010000001
00011111111111000010111111100001
00011111001011011111111111000001
00010001011111111111011001100001
00000000000000000000000010100001
00011111111111100011111111100001
00011110110011011111111110100001
00001110011111111110110000000001
00000000000000000000000011000001
00011111111111000110011111100001
00011110110010111111111111000001
00010011011111111110101011100001
00000000000000000000000011100001
00011111111111000001111111100001
00011110111001111111111111000001
00010111111111111111100011000001
00000000000000000000000100000001
00011111111111101100100000000001
00000000001101011111111111100001
00011001011111111110101000100001
00000000000000000000000100100001
00011111111111011011111111100001
00011110111011011111111111100001
00010001011111111111000110100001
00000000000000000000000101000001
00011111111111010100111111100001
00011111101111011111111111100001
00001110011111111111111000000001
00000000000000000000000101100001
00011111111111110001111111100001
00011111001100011111111110100001
00000010111111111111100001000001
00000000000000000000000110000001
00011111111111100000011111100001
00011111101101011111111111000001
00000100011111111111001111100001
00000000000000000000000110100001
00011111111110100101011111100001
00011111111101011111111110100001
00011001011111111111000111100001
00000000000000000000000111000001
00000000000000000000111111100001
00011111010001111111111111000001
00000101111111111111101011100001
00000000000000000000000111100001
00011111111111110101111111100001
00011111001110011111111111000001
00010110100000000000000101000001
00000000000000000000001000000001
00011111111110111010011111100001
00011111000100111111111110100001
00000111011111111111010111000001
00000000000000000000001000100001
00011111111111011110111111100001
00011111010011111111111111000001
00010110011111111110100100100001
00000000000000000000001001000001
00011111111111000101011111100001
00011111000001011111111111100001
00000101111111111110110100100001
00000000000000000000001001100001
00011111111111001010000000000001
00000000000011000000000000000001
00000010100000000000001001100001
00000000000000000000001010000001
00011111111101111100011111100001
00011101000001111111111101100001
00011101011111111111110000100001
00000000000000000000001010100001
00011111111101101101111111100001
00011101001010111111111110100001
00010101011111111101000101000001
00000000000000000000001011000001
00011111111100100011111111100001
00011110010100011111111101100001
00010110011111111110010100100001
00000000000000000000001011100001
00011111111101010101011111100001
00011100010111011111111100100001
00000101111111111110100000000001
00000000000000000000001100000001
00011111111101010111011111100001
00011110001110011111111110000001
00011111111111111011111011100001
00000000000000000000001100100001
00011111111101101001111111100001
00011100011000011111111100000001
00000110111111111101100101100001
00000000000000000000001101000001
00011111111101100111111111100001
00011100110001111111111101100001
00011101111111111101011110100001
00000000000000000000001101100001
00011111111110011001011111100001
00011100111000111111111100100001
00000101011111111101010000100001
00000000000000000000001110000001
00011111111111100110111111100001
00011111110100111111111110100001
00011000011111111110010110100001
00000000000000000000001110100001
00000000000001100011100000000001
00000000010010100000000001100001
00001011000000000000011010100001
00000000000000000000001111000001
00000000000010010000100000000001
00000011001011000000000001100001
00001110000000000010101000000001
00000000000000000000001111100001
00000000000010010100100000000001
00000010110111100000000011000001
00000100000000000010000001000001
00000000000000000000010000000001
00000000000000111110000000000001
00000000100110100000000001100001
00011111000000000010000100000001
00000000000000000000010000100001
00011111111111011000000000000001
00000000010011111111111111000001
00011110000000000000010101000001
00000000000000000000010001000001
00011111111110001001011111100001
00011110110010011111111110100001
00010110011111111111111100100001
00000000000000000000010001100001
00011111111110001111111111100001
00011110000001111111111111000001
00000000111111111110010010100001
00000000000000000000010010000001
00000000000000001110000000000001
00000000100010111111111110100001
00000001111111111111100110000001
00000000000000000000010010100001
00000000000000110010011111100001
00011111101001100000000000000001
00011101000000000000111000100001
00000000000000000000010011000001
00000000000000100111111111100001
00011111110010111111111111100001
00010110111111111111100010100001
00000000000000000000010011100001
00000000000001000111111111100001
00011111111011111111111111000001
00001011100000000000001111100001
00000000000000000000010100000001
00000000000000111000000000000001
00000010010010100000000001000001
00001001100000000001011100000001
00000000000000000000010100100001
00011111111111100100111111100001
00011101111110111111111111000001
00001000011111111111111110100001
00000000000000000000010101000001
00011111111111110110000000000001
00000100010110100000000010000001
00010100000000000000101010100001
00000000000000000000010101100001
00011111111111100000111111100001
00011111001010111111111111000001
00011111100000000000011001000001
00000000000000000000010110000001
00011111111111011100011111100001
00011111011111011111111111000001
00011010111111111111001000100001
00000000000000000000010110100001
00011111111110110111000000000001
00000000010001111111111111100001
00000010011111111111001001000001
00000000000000000000010111000001
00000000000000110011000000000001
00000000001010011111111111100001
00000101011111111110101111100001
00000000000000000000010111100001
00000000000001010000000000000001
00000001000100000000000001000001
00011101100000000000000001000001
00000000000000000000011000000001
00000000000001000010000000000001
00000001011000100000000000000001
00001100100000000000111101100001
00000000000000000000011000100001
00000000000000100011000000000001
00000000010010011111111111100001
00011101100000000001001101100001
00000000000000000000011001000001
00011111111111100111111111100001
00011111000010011111111110100001
00000111100000000000000100100001
00000000000000000000011001100001
00011111111111111111011111100001
00011111010000000000000000000001
00000111011111111111101110100001
00000000000000000000011010000001
00000000000000001101100000000001
00000000100110011111111111100001
00010011100000000000010100100001
00000000000000000000011010100001
00000000000000000011100000000001
00000000001001000000000000000001
00011000011111111111011100100001
00000000000000000000011011000001
00011111111110011001111111100001
00011100101001011111111110100001
00011110000000000000001011000001
00000000000000000000011011100001
00000000000010101101000000000001
00000100010100000000000010000001
00001100000000000000000101100001
00000000000000000000011100000001
00000000000100001000000000000001
00000100101111000000000011000001
00011111100000000100000110100001
00000000000000000000011100100001
00000000000011110111000000000001
00000011001000100000000010100001
00001000100000000100001111100001
00000000000000000000011101000001
00000000000010101111100000000001
00000000101111000000000000000001
00010111000000000001111101100001
00000000000000000000011101100001
00011111111110100011100000000001
00000001000000011111111111100001
00001010000000000010110000100001
00000000000000000000011110000001
00011111111001111000011111100001
00011001000001011111111010000001
00011111011111111011101111100001
00000000000000000000011110100001
00011111111100000111011111100001
00011100010100011111111010100001
00001111011111111011101010100001
00000000000000000000011111000001
00011111111100110111011111100001
00011101110101011111111110000001
00010000011111111101100010000001
00000000000000000000011111100001
00011111111110001011011111100001
00011110000011111111111111000001
00001110111111111111010000100001
00000000000000000000100000000001
00011111111101111110011111100001
00011101100011011111111110000001
00010001111111111110100000100001
00000000000000000000100000100001
00011111111110100010011111100001
00011110000111111111111110000001
00011000111111111110101000000001
00000000000000000000100001000001
00011111111110000010011111100001
00011110001010111111111101100001
00011100111111111110001011100001
00000000000000000000100001100001
00000000000000111110111111100001
00011110110011111111111110100001
00010100011111111101111111000001
00000000000000000000100010000001
00000000000001100010100000000001
00000001010011111111111111100001
00010010000000000000111011100001
00000000000000000000100010100001
00000000000000100000100000000001
00000000101000100000000000100001
00011101000000000001011010000001
00000000000000000000100011000001
00011111111101010111111111100001
00011101111010111111111111100001
00011001111111111111110101000001
00000000000000000000100011100001
00011111111101011101011111100001
00011101001111111111111110000001
00000001011111111101100110100001
00000000000000000000100100000001
00000000000000000110111111100001
00011111010101011111111110000001
00001001111111111101111000100001
00000000000000000000100100100001
00000000000000111001100000000001
00000000001111000000000000000001
00001011111111111111000000000001
00000000000000000000100101000001
00000000000001101010000000000001
00000000110000100000000000100001
00010010111111111111111100000001
00000000000000000000100101100001
00000000000010001011000000000001
00000010011101100000000010000001
00000000000000000001101111100001
00000000000000000000100110000001
00000000000010011110000000000001
00000001111010100000000001000001
00010111100000000001101001100001
00000000000000000000100110100001
00000000000001101010100000000001
00000001011010100000000001000001
00000000100000000010000011000001
00000000000000000000100111000001
00011111111101111001000000000001
00000000001110100000000001000001
00001000100000000000101100100001
00000000000000000000100111100001
00000000000000010100000000000001
00000000011011111111111110100001
00001110111111111110000100000001
00000000000000000000101000000001
00000000000001000110111111100001
00011111111010100000000000100001
00000100100000000000111010100001
00000000000000000000101000100001
00000000000000000111100000000001
00000001000111000000000001000001
00011110000000000000110101000001
00000000000000000000101001000001
00000000000000011100000000000001
00000000100101100000000001000001
00000001100000000001001100100001
00000000000000000000101001100001
00000000000000010000000000000001
00000000010101111111111111100001
00010111000000000000011011000001
00000000000000000000101010000001
00011111111110011100111111100001
00011110011011000000000000100001
00001111111111111111001101100001
00000000000000000000101010100001
00011111111101111111111111100001
00011101110110111111111110100001
00001111011111111110010111100001
00000000000000000000101011000001
00011111111111010010011111100001
00011111101011011111111110100001
00000011011111111110110110100001
00000000000000000000101011100001
00000000000000001000000000000001
00000000000110011111111111000001
00000011011111111111101100000001
00000000000000000000101100000001
00011111111111011000100000000001
00000000010000111111111111000001
00010101111111111111010100000001
00000000000000000000101100100001
00011111111111111010011111100001
00011111111011000000000000100001
00000101011111111111101111100001
00000000000000000000101101000001
00000000000000000010011111100001
00011110111110100000000000000001
00001100000000000000011100100001
00000000000000000000101101100001
00000000000000000100011111100001
00011110111000111111111110100001
00010101100000000000010001000001
00000000000000000000101110000001
00000000000000110001000000000001
00000001000011000000000001000001
00011011000000000001000101100001
00000000000000000000101110100001
00011111111110011011111111100001
00011110001101011111111111000001
00001101011111111110111100000001
00000000000000000000101111000001
00011111111111101000000000000001
00000000001010111111111110100001
00011101011111111110011100000001
00000000000000000000101111100001
00000000000000101100011111100001
00011111001001100000000000100001
00010011111111111111100100000001
00000000000000000000110000000001
00000000000000100100000000000001
00000000011000111111111110100001
00011111011111111110110111100001
00000000000000000000110000100001
00011111111111101101111111100001
00011111111110011111111110100001
00011100111111111110111010100001
00000000000000000000110001000001
00011111111111111111111111100001
00011111100111000000000000000001
00001000111111111110010011000001
00000000000000000000110001100001
00011111111111000011100000000001
00000000011110000000000000100001
00010100011111111111101000100001
00000000000000000000110010000001
00011111111110101100011111100001
00011110100110111111111110100001
00001001011111111110101011000001
00000000000000000000110010100001
00011111111110000111011111100001
00011111111000100000000001100001
00001101100000000000100010000001
00000000000000000000110011000001
00011111111101001001111111100001
00011101001110011111111100100001
00001100011111111101011000100001
00000000000000000000110011100001
00011111111011111000111111100001
00011100011001111111111100100001
00010000111111111011011001100001
00000000000000000000110100000001
00011111111100011011011111100001
00011100000000111111111010100001
00010001111111111100100100000001
00000000000000000000110100100001
00000000000001010010100000000001
00000001011111111111111110000001
00010101111111111100101010100001
00000000000000000000110101000001
00000000000001010101100000000001
00000001000010100000000001100001
00001111000000000001101100000001
00000000000000000000110101100001
00000000000000100111000000000001
00000001011111000000000000100001
00011100000000000001010101000001
00000000000000000000110110000001
00011111111110010111011111100001
00011110100001000000000001000001
00011001000000000000110111000001
00000000000000000000110110100001
00011111111110010001011111100001
00011110111101111111111110000001
00001100111111111110100110000001
00000000000000000000110111000001
00011111111110101010111111100001
00011111000111011111111110100001
00001001111111111110011010100001
00000000000000000000110111100001
00011111111101111011111111100001
00011111101010111111111110100001
00010001111111111110110000100001
00000000000000000000111000000001
00011111111110011000011111100001
00011101101010011111111101000001
00011001011111111101110010000001
00000000000000000000111000100001
00011111111110001111011111100001
00011101101011111111111110000001
00001000111111111101000011000001
00000000000000000000111001000001
00011111111001101100111111100001
00011100111011111111111011100001
00010111011111111101010001000001
00000000000000000000111001100001
00011111111010011101011111100001
00011010110100011111111010000001
00001001011111111011100101000001
00000000000000000000111010000001
00011111111011101001111111100001
00011010110010011111111000100001
00010001011111111001110000100001
00000000000000000000111010100001
00011111111110000011011111100001
00011101101101011111111100000001
00010010011111111100110011000001
00000000000000000000111011000001
00000000000011101111000000000001
00000010101110000000000001100001
00000101100000000001010100000001
00000000000000000000111011100001
00000000000010101100000000000001
00000100000001100000000011100001
00000100100000000011101001100001
00000000000000000000111100000001
00000000000010111110000000000001
00000011000101000000000100000001
00000001000000000011010011100001
00000000000000000000111100100001
00000000000010111100100000000001
00000010110111000000000010100001
00001011000000000011011010000001
00000000000000000000111101000001
00011111111110011010000000000001
00000000101001100000000001000001
00001110100000000001111000000001
00000000000000000000111101100001
00011111111110100101111111100001
00011101110111111111111101100001
00011000011111111101101110000001
00000000000000000000111110000001
00000000000000011110100000000001
00000001100001000000000001000001
00011101000000000000010110000001
00000000000000000000111110100001
00000000000110000100000000000001
00000101100010000000000000000001
00011111000000000000110101100001
00000000000000000000111111000001
00000000000100111011100000000001
00000101011001100000000100000001
00011111000000000011011001000001
00000000000000000000111111100001
00000000001000011000000000000001
00000111101001000000000011100001
00010110000000000101110000100001
00000000000000000001000000000001
00000000000110101100100000000001
00000101001011100000000110100001
00010111100000000101110010100001
00000000000000000001000000100001
00000000001001000111000000000001
00000111011111100000001001000001
00011111000000000111001100100001
00000000000000000001000001000001
00000000000110101001100000000001
00000111011001100000000111000001
00010110000000001000010001100001
00000000000000000001000001100001
00000000000011011111000000000001
00000101010000000000001000000001
00010001000000000110110010100001
00000000000000000001000010000001
00000000000010010011100000000001
00000010100011000000000011000001
00010101000000000100000101100001
00000000000000000001000010100001
00011111111100111111000000000001
00000000011111100000000010000001
00001111000000000011101100100001
00000000000000000001000011000001
00011111111101101000011111100001
00011101110011011111111100000001
00010101111111111101011000000001
00000000000000000001000011100001
00011111111110011111011111100001
00011110001110111111111110000001
00010101011111111110001010000001
00000000000000000001000100000001
00011111111110101010011111100001
00011111011010011111111110000001
00011110011111111110110001000001
00000000000000000001000100100001
00000000000000100000000000000001
00000000010011000000000000000001
00000001111111111110011101100001
00000000000000000001000101000001
00011111111101101111111111100001
00011110000100111111111111000001
00011101111111111111011101000001
00000000000000000001000101100001
00000000000000010110111111100001
00011110011101011111111101100001
00000100011111111101011101100001
00000000000000000001000110000001
00011111111111110100000000000001
00000001100111100000000000100001
00001011000000000000111011000001
00000000000000000001000110100001
00011111111100100111000000000001
00000000100001000000000000100001
00001011111111111101110011100001
00000000000000000001000111000001
00000000000000000000000000000001
00000000000000000000000000000001
00000000000000000000010111100001
