0000
00b9c00a20008c1402
0001
0023c000f042a3fff7
0002
03b2c00fb0006fe7dd
0003
019800e7b00018002b
0004
fee4bffec01ddc0021
0005
01e9418c20632802a2
0006
0142c090d0499c124a
0007
062700a270602c0d82
0008
03c4bfff2ff268097b
0009
026d00f480205ff3c7
000a
ffab4009d032180dc8
000b
03ac0026e00c6c070b
000c
fffc0060306be80500
000d
0224004ff014b3eada
000e
fee70040200f300613
000f
0123c03ad00057fd58
0010
fa6180a62063102bf3
0011
012a004a0005d80cf8
0012
ff9b8027a027240525
0013
ff2abfe0ffffa4042e
0014
fe7181c85058fbfc15
0015
01e180387ff28bdd86
0016
fff34095401ff80a98
0017
fdd5bfbbdff847fffe
0018
f9bb3ff7dfebe7fdc4
0019
00dd0069dfff3c0e9c
001a
005b7ff4bffedbffbc
001b
feea7fa48fdce3f906
001c
02c8801e10069bfeb5
001d
0009ff00afda680133
001e
ff9a3fff40193ffd99
001f
016d7ff01fe9cbfa0f
0020
01957fe51021840a2c
0021
feedc08a2fdb882107
0022
00a000130005c80122
0023
00cb0043fffdcffb7f
0024
fcc4ffe1901034026c
0025
00487fc69ffb4420c3
0026
011e3fe1cfeea3fbb5
0027
0138806a400d2405ef
0028
fca1c06bb018f3ff1c
0029
005dffeed051f80226
002a
ff3f3fa7cff89ffc9d
002b
ff807fec500d5002ce
002c
002f0098101327fde2
002d
ffd4806850481c06b8
002e
ffbfffbd5fde5ff97f
002f
ff4cffbdafe87bf7b7
0030
01784069e0056ffdec
0031
0253c0cf102d87f6d2
0032
fd973fd66ff49bffe0
0033
fe037f925fea77f78b
0034
02f840251ffe43faac
0035
041500868fcec003e5
0036
008bbfb8100427ffe4
0037
feb6ffcfdff0bbfbbb
0038
0460c01050000ffcf0
0039
feda3fac204c24239a
003a
fd207ffdc00d3404fb
003b
fe677f72efedd3f9d1
003c
ff627f214fd1bff9af
003d
ff4d8224d0c6603058
003e
fff5ffff3001cfed4a
003f
00d4c0115fdae7f716
0040
fef7ff95cfffe80b0f
0041
090941bde0e4f00737
0042
fff58001401a97fe70
0043
03acbedc600083fe1a
0044
fe9c404da008dc03a9
0045
ffe6fe52ffcb03f249
0046
03ea4005c00093ffd8
0047
03adffeb6038280650
0048
ff2e809c80242c0e80
0049
02ac002f0ff1941203
004a
00ac3fc54ff8a800fd
004b
012c40ee002744051a
004c
00b280ab1fe734003a
004d
fe11804b600fdc13ee
004e
031801391020f81015
004f
017c3f7f50015c0a5b
0050
0045c0a100102ffd5e
0051
02857ff0300eb8083a
0052
01cec0c1d01613f812
0053
ff790040500a78068b
0054
007480345003b3f9bc
0055
0268809d900697fede
0056
018540d75010e7f9d9
0057
001d7fe96015bff6d9
0058
00174040101ba00168
0059
0422c055f0028401e0
005a
004a808660084404f1
005b
0138002fd001340113
005c
ff287fbdc004640321
005d
02db3ff05019b80351
005e
0012bff300099c0317
005f
ffe93ff9fffc7ffe82
0060
003e7fdddfed37f520
0061
006a402100091800f5
0062
0211007c70125800be
0063
02e000598ffc23fee0
0064
fe223ff98ff06bfd47
0065
ff58bf5b80117800a0
0066
ff574064401ec8144e
0067
020b00bea00003f746
0068
fdeabffa901d240c18
0069
037cffaa50419ff9e1
006a
0190bfb2d02ba40c0c
006b
004200afc023e80852
006c
025c00001fea2402f1
006d
ff21bfd2200f540976
006e
ff8580041006d401c4
006f
fffd8016901767ffa0
0070
0430810eaff6880289
0071
ffe3c0052feb4c0b65
0072
fea40000b0052c0406
0073
0005bfb660072fff44
0074
02b1410bf011abfdbd
0075
00a0ff3e800d8817f7
0076
00d73fd5cfeed80448
0077
03138042301abbfffc
0078
02ea40f0f010cc0a54
0079
ff8d3faf302fc40070
007a
029e0021dff4dffe32
007b
016640d660139005be
007c
02214024502dec0c4f
007d
0017c0420ff9a8001c
007e
fef0ff608fd38bfce4
007f
0322ffa76ff7b7ee81
0080
034a40e0e01be804ba
0081
00c57fe26ff43002d7
0082
ff903ffa7ff3e40560
0083
009a011c8fecc7e9b9
0084
003a006f30208c0539
0085
012e40db5ffdcbf83c
0086
fee44079e0123401a3
0087
0315c07c201af0127a
0088
02b9fff7cfd77bfe86
0089
05d780005ffb2c0019
008a
000efffd30158fff2d
008b
03a2800250022400f6
008c
ffff402dcfffac1899
008d
fd89ff6e7fa3b008e7
008e
fff140e4303dd3f9dc
008f
fda5404f500ac80ef9
0090
fc044004eff317f5bd
0091
001d000c0fbccff6b7
0092
ff76001f30004bff1b
0093
000340e25fbadbf9ef
0094
fd57bfea6fd3d3ec9c
0095
00e2ffc8cff103fc17
0096
02a3801e6ffea3fc08
0097
044c7ecdd01ea40975
0098
ff43bf8dafae07fd3b
0099
ff3cff7fdfdfa80183
009a
fe617fc3d0007bff12
009b
ff28ffc48fe84fecef
009c
002bc01b8ffd6400f1
009d
0297410a3fdb8ffa50
009e
fe32ff8cdfeee00311
009f
00c900076fbdd40b84
00a0
fec23f82aff6affbf5
00a1
ff4fc07d603c3bfaee
00a2
04e5c0a8500a57fee9
00a3
0083ff19cfd4bbf82c
00a4
00bec008bfe340024a
00a5
fe43ff91700b4c0a5f
00a6
0694c0a5cff7fffc7c
00a7
ffd4ffaa6f9887f9da
00a8
008c7fb0c02b700316
00a9
ff06ffba2ffa3bff54
00aa
fe6c3f54dff6581caf
00ab
ffdbbfbe2ff017fe3e
00ac
febabfe5dff68c0784
00ad
027b3fde5ffa0fff2c
00ae
fff33fd1dffd5c183b
00af
ff19ffbe10039805ba
00b0
00b8c03f2ff6c3fbc9
00b1
00793fc9301677fe43
00b2
01b280abd045d000e1
00b3
ff5fffcc9ff94001f2
00b4
007c404dd01ca00007
00b5
fffbbf5930114c01f9
00b6
0639811b302b340446
00b7
ff52bfc63ff8d80caa
00b8
ffd78055c0234c034e
00b9
006c4002afff8c013b
00ba
011500b9504d140f0c
00bb
018c003e1ffb580390
00bc
ff377febb00d4006d8
00bd
fbee400180035410cb
00be
00f83f61afbd87e095
00bf
ffd5bfcfb02a5000c1
00c0
f516bfc96fff6ff342
00c1
fc2e7e8daf7617d074
00c2
00c43ff5bfc7cff06d
00c3
fffbc090101023ecbf
00c4
f712be891f74440a76
00c5
f8a2fe2d6f947bd82b
00c6
0089fe9c9fa547ecd7
00c7
ffae407500399401dc
00c8
026080cdb010380d20
00c9
041c4039801bc80698
00ca
02ecff7e003c43fa85
00cb
02ef00a37017d3fba5
00cc
040d4039d052280381
00cd
021440d8c02d740621
00ce
013a408adff2480695
00cf
0246c0223024a40cdd
00d0
00d00047a0107c04c2
00d1
01e5005a0ff91bfc5f
00d2
020a0048b002ac042f
00d3
01cc3ff3afe69c0236
00d4
00fd403bd000cc0293
00d5
00508017a00e9c014f
00d6
0449c13b5028d41810
00d7
0032002ccfd0fc02c7
00d8
ffc9bfa6f0115ffde7
00d9
0261ffea300b400827
00da
fff200530fd7c40953
00db
01247ff9500ec805df
00dc
037280475ffdf8033c
00dd
03c1c0a11034881519
00de
01f00092400bb40c67
00df
015fbf647010a80449
00e0
017140ede01ad00675
00e1
019fc0fb205aac0ae4
00e2
fdf4c032a0130001ae
00e3
0081803d10327401a4
00e4
01befff6d012480323
00e5
0319408f602d1c0a34
00e6
fea28027903e400ee9
00e7
fe8a7fed500fb0076b
00e8
00c9c04afffc9ffa61
00e9
020141adc02a580bf0
00ea
fe34bf6de0051c09c6
00eb
00887ff8bfed4c01b4
00ec
01c6c00f2014dc02c0
00ed
03f280db2043c8103f
00ee
ffe13fdf3fe067f78c
00ef
014dbfe2eff9b3fef1
00f0
01ce4027303f34045a
00f1
fee1008d901710045f
00f2
ffa77fc1dffb73fc0d
00f3
febe3fef9006e8024b
00f4
041c00a53033940ac2
00f5
01cfffebd00cc3fa26
00f6
fecf3fcf2ff6c40127
00f7
ffc37f9e30191ffcc2
00f8
fff84013502bb408fd
00f9
fff9ffde1008e00373
00fa
00ed8025cff4d3f344
00fb
02c0800cd0170fffb8
00fc
00e6c042602b3005e5
00fd
ff3e802630105fff16
00fe
feb43f475ff04bf7a0
00ff
04c8c03d401eb41521
0100
fddb7fa2a022f40275
0101
01507fbd7fbebbf602
0102
032fc0c7803517e91e
0103
fe8ac07c6005300651
0104
fe9600705ff72c0dfd
0105
009f0036effbe807b5
0106
02a04031302bcc07e2
0107
fefc0001dfc448084a
0108
009fc0ed1000100209
0109
019f400290075c00b2
010a
fffe7f51a01817ffd9
010b
0325c079afbaec0028
010c
08ae828330732c0b45
010d
fe23c121100a9409be
010e
ffc2803db0439801f0
010f
08284276b013bfebd7
0110
01f2c17fd0b790227a
0111
ffd0008cf00604049b
0112
fe0dbf8feff4abfed4
0113
07b982026073c007cd
0114
013200153fd8dfff5f
0115
fb3bbe7ad0025c0379
0116
04cfbfc25029001650
0117
0020ff70b050382146
0118
00828008c00c3406f9
0119
007b7e47bfc29c0554
011a
03068160c030080d8e
011b
00967fc89fe55bfa0d
011c
fba8fde7b00cc7fffb
011d
01f9bfabf021f40c48
011e
fe4e00d620455011a8
011f
00a6c01ab0002bfd35
0120
ff6dbe5b0fd5abf873
0121
02af00829fdf500718
0122
ff418015c048f40dee
0123
0327bfea000153fe73
0124
01cf7ff4a00b041a07
0125
00fdbfd8efe6e0037b
0126
fe94bf8af00c500cab
0127
03abffec6ffdebfdeb
0128
fe908099affe3819b0
0129
fec0c000efdf13f7d5
012a
00510033e0129c019e
012b
01e84165d038342b28
012c
00cbffb0bfdd3bf825
012d
ff77003ce0161bfcce
012e
03ce00066ff2100eff
012f
0030ffe67ff738091e
0130
00f70050800743feda
0131
0950c0035031540b75
0132
006b7fa98ff2fc0f4b
0133
01e7c012d00aac0332
0134
049640ec4ffa400617
0135
feeb7f862fea0bfca6
0136
feb8c0157000e7fd2d
0137
01033fd16fc90bfdb7
0138
0077bfee300d7c0ec8
0139
018dffd8dff29ffe64
013a
fe7abf3dcfa33ff6db
013b
05990055a00030031d
013c
ffb5ffd7e025681220
013d
fdd57ed2f01877ff63
013e
011ac0b390229ff3d0
013f
00e03ff8902503f9ff
0140
ffb20016c04230161f
0141
01c7402d100ec40cb4
0142
016c0026201c800703
0143
00f0c051700d87fccf
0144
06720085a02aac0886
0145
02f93f859fc8a4032b
0146
ff60c0eea02df80a80
0147
011740850016700db6
0148
ff32002f402167fa63
0149
02ec3fe9302f240a0a
014a
0116fff10014641407
014b
fe0080243fc87402ba
014c
fc25ff9ee00ac4024d
014d
ffea8086500c7fedf3
014e
0182bffa2ffe48007b
014f
fc163e89b02f540b1d
0150
00a73fdc3002a804ed
0151
fe33c0683ff270025f
0152
fdb9409080085805cf
0153
fecc3fbb3fdb13f11b
0154
035f7f98b02e5804f2
0155
fd6b3f6a8012f80e5d
0156
0041003a6ff687f407
0157
ffeefff2af9fbbf453
0158
fe59ffce20224c0907
0159
011c803a0ffbfbf6d0
015a
0110804b702b0c0365
015b
0253405240066c039a
015c
ffc4401c2fe8c00726
015d
feb001ee1072380882
015e
00c04075dfefefff8a
015f
00b0805e7ff893faba
0160
fb34c055602d13f5a1
0161
021abfbba0033ffe02
0162
010a0025200ad3feb1
0163
03c200a4bfd8abff48
0164
00a100762015f7fc61
0165
0172005d000834055e
0166
005740036ff49003fb
0167
ff254044e027e802df
0168
ff71fff94004280558
0169
feebbf9eb01457fc07
016a
ffb6c11e1ff8cc075b
016b
ffc640044017affec3
016c
fe007f9800091001ec
016d
00e4c0ac900523fbc0
016e
0054000ed00be80548
016f
ff857ff80ffd2402bb
0170
00390035504dc7f902
0171
0262c07bb010d7fc0a
0172
ff6bc04ce007f00891
0173
0128c05ae0093c03fa
0174
00c3c0c7fffd6006b1
0175
02bd008ca01050030a
0176
01e5c0493013c00184
0177
02c1403b4ffee4040f
0178
008480415031e412e6
0179
ffce0000803e9c06dc
017a
001e40013ff597fe30
017b
ffc680363000b400e7
017c
016dbf49e022800b0a
017d
04b240f40006e406ad
017e
fd553f996ff5a00502
017f
02aa7ffb3fcdb7f6fb
0180
fefe00160fe8440b6a
0181
03380271e057f40883
0182
fde1bfbff007ec0b7d
0183
062ac1f89fe8140201
0184
031d00722fe6c41703
0185
fc4dc002201b7803be
0186
088440eb10812012fe
0187
ff47ff9ad0137818e0
0188
0307c09170080bfe4f
0189
00eebf4b1005f4017f
018a
fd123ee3afd4d40fc6
018b
feccff694fe16bf769
018c
fd69ff829000c7ff18
018d
fdf73f16cf9447f8f7
018e
004e400efffcf3fcd5
018f
003d005d801a640902
0190
fafdbe37e009540f62
0191
0108807de01047dee3
0192
0024802fc006540391
0193
00963fd670878c1199
0194
00478091cfefc408e9
0195
0034bfdbefebc7feae
0196
ffec4042c01a10028d
0197
fc80801d9fedc3f98e
0198
ffe6bfbc4fe28ffaf6
0199
005a8047700fa00187
019a
fb963ff1d01f73f644
019b
00c000386ffdc7fa41
019c
fbbc7fec0fec6805b7
019d
fd847fe4900fc40945
019e
00f5c0067ffa47fdd1
019f
00360010cff45003c2
01a0
feb1bf4de00127f69f
01a1
ff5dc06da008200378
01a2
ff538014d034bfeebc
01a3
ff54c00d90067ffe3f
01a4
00ab3fd970046802e0
01a5
0060bf13e002efef46
01a6
fc43ff4ab0063403de
01a7
f6e4ffff8ffbd7f3bb
01a8
feabff997fdb33e75a
01a9
f99eff76afedb00220
01aa
fb563fde3fff880656
01ab
f8f87e592f8897e0e6
01ac
f7ab7f01efd4e3eebd
01ad
fa5fc0bee0009bf942
01ae
025a409d8026b3f3cb
01af
0169c0b4300ce406d9
01b0
00ba7f80b01f6c0595
01b1
ffd97f852015c81f94
01b2
0329005d401c4c0e3b
01b3
016a805fa022a405a1
01b4
01f4bf661feb27f822
01b5
0355c083201c241714
01b6
02533f72603270043b
01b7
0512c10e00114410f6
01b8
01ef806ec0350c0c52
01b9
02578172402e180e0c
01ba
012b810f9fdb1bfa18
01bb
0004405d30378c12d4
01bc
01d1403fcfe04ffa4c
01bd
01253ff3103178159d
01be
ff5c8082b0348ff424
01bf
fee3bfa9afdbd3f7bd
01c0
02d24023f01a280a2d
01c1
fc577fd5100f240250
01c2
01b9ff36ffe83bf066
01c3
01b1008f004ad40377
01c4
07e84292505633ff4c
01c5
0136c077000c200239
01c6
ffccffc9bff3bffa12
01c7
fe7effe18feea802a6
01c8
021a4103d04e1413e8
01c9
ffa4bfccaffcf7fa06
01ca
004980d0cfec780773
01cb
feefffe140074c051d
01cc
ff1a00487ff34000e3
01cd
01d3ffcb3021cffb71
01ce
00197fcbe0035bfd29
01cf
00aabfe950124004d5
01d0
fecb806efff2d8081a
01d1
0021bfe3cffcdbf700
01d2
02d5ffbfd006a00434
01d3
fea8804aa03bec03ab
01d4
0041bff85ffd37fc8a
01d5
013e8028ffe34401b0
01d6
000d3fda70278c05de
01d7
01d68016bff4e0047c
01d8
01b380260febd3fbc8
01d9
00a1fffea003240320
01da
01737fe4afda63f13f
01db
04470006afdbabfb5f
01dc
0010806d103c37fe07
01dd
02647fe59fded7fdc2
01de
fff9bf2fc01294012b
01df
0013ffad6000dc00b7
01e0
fc7b3eda6000080eab
01e1
0247c0f660181c0063
01e2
fbd9bfe88fb7dff7c6
01e3
00cb80230fecafed69
01e4
ff1e3ff29027c00348
01e5
ff8d7fee2ff9a7fa84
01e6
00ce0060eff983fea4
01e7
ff53001b3017e005a9
01e8
fefcffd39ff3680082
01e9
fe4cbfb99feb9ffa8b
01ea
ff98c111f01f4c01cc
01eb
0035c030b0524bfeb4
01ec
ff9700483feb0ffad7
01ed
04f000d03024f40178
01ee
ff2f40743028900878
01ef
ff5d7fa03ff80c0564
01f0
018a7f3a5ff7f40392
01f1
ff10409d0045f00009
01f2
ff417ff2bff85ffc23
01f3
f4687d2110057bffba
01f4
fecfbfe7500d580766
01f5
071f013630231bfe3d
01f6
ff16ff012f4750230f
01f7
022ac0545010e80228
01f8
f4463f9db048b40bcb
01f9
fe723f7a1fd3a7ffff
01fa
00744041c0135002c3
01fb
f88cff163fdf5c005a
01fc
fef4bfe060186c04a6
01fd
000fc02f5fed87f5c1
01fe
f9817ed26fde77fefd
01ff
feadbffd1fac37f8c9
0200
002d0046e00b9bfb00
0201
04f1bef13fdffffe37
0202
f9ecff517ffe1c0a1e
0203
00dc4025afbf1fe072
0204
fc75bf12dfced40577
0205
fddcff2e4fc42bee93
0206
ff1cffbcfff12bfc59
0207
0007ffd71fc73ff4f0
0208
fdd47facd022500520
0209
fd923f318fd00ff177
020a
00757f509fdf2bf876
020b
01f040fc9045040e6a
020c
fdf3ff74400f6bfb4f
020d
ff0bc00e9fdd63f8aa
020e
03ffc105803a3c0759
020f
fff77f88a02c2025f9
0210
ffac8030c013340812
0211
0452805a5008f40c45
0212
022f806b300bdc0801
0213
ffe9bfb49037f3eee3
0214
01188096f045140ad8
0215
00ecffbed015640756
0216
018e80626043bc0af5
0217
0107802f9007dff0ff
0218
00114074203f5c06e5
0219
03d0c0f8302183ed7d
021a
056b803cbffdeffb9a
021b
ffd8404fe0028c09f6
021c
ff46800b8ff84c0504
021d
01e3c097d007040046
021e
00517fc8301fc801be
021f
fe8ebfe1b001c4026f
0220
fe3d0007700e640413
0221
fd2f7ff0e000e3fc94
0222
0381809c4fce13ee46
0223
00994029400d740328
0224
00fcffcb0fec7401c7
0225
00afc0188048400a52
0226
ff40bfe4101babfd19
0227
02ca80214ff7dbffad
0228
03ef8033f02a881334
0229
033a005bf00b5803b9
022a
fe9d3fc31ff2640546
022b
00a4003a2026ac0752
022c
0049401e9024b80ff0
022d
fbfd3f4b7fec8ffdfb
022e
024cffc3300b2c00e5
022f
016c80884018580b4b
0230
fdfb3f745ff36c002f
0231
00c640a2afee7bf84c
0232
ff34bf2a9fda24021a
0233
ffa9fffcbffbcc0366
0234
05f00027b0291bfad8
0235
fed73f20afdb801010
0236
ff7bbfd18feaa3fa33
0237
03453f65a0090003e3
0238
ff318044b009981112
0239
fe7dbfbb2ff4fbfd11
023a
ff6abf4ad025a00e37
023b
006dbfbb1fc6c0062f
023c
fd71ffb4301ef4070d
023d
026140a47fea73fa5a
023e
03caffc80ffb9ffd93
023f
02cb411be018ac0456
0240
023d4085eff75008e4
0241
ffd1401a0fff1c0550
0242
ffc4c0164ffd93fe8c
0243
f762fec60fdf8ffd28
0244
f97d7e056fc30fd6e7
0245
f6693ce8ff666fff23
0246
044100270feba3e280
0247
fcbcfe512f7263e7bc
0248
fe93ffe5fff1fffb54
0249
ffedffdb301e340bdb
024a
ff64bfc5cfe49c0941
024b
fe303feacff27ff940
024c
ff10ffdf700a83fe6f
024d
ff1f7fe5301347f404
024e
00c0c021cff9fff9a8
024f
ffa10065c03b73ffc2
0250
00908021efef83ff2e
0251
0314c083c004e002c4
0252
002cffd78ff67ffd09
0253
0126403ff008600192
0254
00fabd837ffef7feee
0255
00c0bffd400b8404d2
0256
f8f3c08c90059bffdf
0257
ff07000d1032cfe84f
0258
0022801bdfff3bf7fc
0259
ffe7bf0e0fc6f801d6
025a
ffa2bf9430757003c4
025b
01c93fc71ffbbff45d
025c
fd773ed68019680110
025d
fdafff770061e81590
025e
ffe47fb3d01b900346
025f
fe5d00a2effecbf1aa
0260
fdfb403b00255406ab
0261
fbd57fb15fe1fbfc22
0262
fed97fff5fdbf81baa
0263
01218085c05b8c0950
0264
fd18ff479fe9abfe04
0265
ff00bf8ccfeb8bf8a9
0266
ff45ffc8effb280a16
0267
fdb27f2befd29ff845
0268
fdfcbea8e01e4803ef
0269
01f9016680207ffd2c
026a
035dbfe4b02e980a74
026b
0c90433480725005f1
026c
032300ed70e9183ff6
026d
022300d02fcef018f1
026e
099ec3026061282834
026f
0351ff53906a6c1179
0270
03e480e0fffe340507
0271
02f5c0a3c019e3fe5e
0272
ff77bfc4404bebf9dd
0273
00d0c06a103bdc0299
0274
0182c0d3a03a780b89
0275
ff95c0bbbff18009b5
0276
023ec0421011140219
0277
02a9805830056003b7
0278
ffe33ffc900bfffb97
0279
011ec0412014280418
027a
01df8066b0078801fe
027b
fffc40a4100b880bcc
027c
000c801ca0116402ae
027d
ff717f7a6fe44002b5
027e
ff4ebfcf701478038d
027f
05ab80b1b0085ff921
0280
044fffe54ffd3c0471
0281
ffaac0643fe9f40cb2
0282
fe6d40429012d3fdd3
0283
010f7f60500b6bfbb4
0284
00eeffab4fee080384
0285
02558084700b2000f3
0286
0172c029101130037a
0287
ff6ebfd7c010ac04ea
0288
ff1b40064013d0060d
0289
04693fe8d031affcd9
028a
0068402bd0126bfb4c
028b
00270075f01f64036b
028c
0027c019a025fc01eb
028d
ff3fbfb07ff0d7fac5
028e
030affab500c7bfef4
028f
00c100c87013cc1113
0290
fd56ff8f6fe4dff8d9
0291
022d7fba3ff20bfd0d
0292
0052802a900fac0776
0293
017b8016e03173fe23
0294
0131ffd81ff4040714
0295
fedaffacffe378020c
0296
0096c0b3a009c400dc
0297
ffc8806ed002580b94
0298
ffe9404cf00ebff411
0299
02ccc0a1fffd3bef1b
029a
f1fdfceb8fad67e816
029b
fab0bea33fade7db7d
029c
fae57cfd7fae280696
029d
fbcb7ddde000c3f37c
029e
0031c07ea026bbff02
029f
fe553f84400163f51d
02a0
fed83f9a60081004a1
02a1
fe9cc0364ffa5ffe71
02a2
041c80ebcfe2f7f208
02a3
fe713fd3dfdde3fece
02a4
01233f63efdf9ffd5a
02a5
02e84156300f77f6c8
02a6
ff9dbf9c1ff16bfb24
02a7
0acb416df02497ff9d
02a8
011c00b6ff6f80011b
02a9
09b781de30411bfd56
02aa
0bc741ea40b1cc3bfe
02ab
fc5e8063dfc8f0316c
02ac
00950004700c97ff5d
02ad
ff013faa3fe9fff4be
02ae
00547ff7701df3e928
02af
faff3f892ff1b3f759
02b0
00a6bfb8bffaffe914
02b1
ff6f0013c0072001ff
02b2
feddffcaf00403fb4a
02b3
02ddbe738fa13bfda9
02b4
fea7ffb6900588023e
02b5
00b27f117ffaa3f8c2
02b6
ff293fd64fec4ffc7a
02b7
003aff1cdf9d90102d
02b8
fcbdbf717fdcd3ff78
02b9
0063803a8ffb90033b
02ba
fe4bbfb78ffdd800da
02bb
fe5980292ff9e3f5f8
02bc
04d341ac9ff04ffa51
02bd
078b40f6eff8a0027d
02be
070b414f304d10202d
02bf
0537415c3015082609
02c0
f9a43ff69fe4dbed0d
02c1
09f2c26be0895816e1
02c2
033ec1dbe085e41afb
02c3
039f40555fdb87f087
02c4
febb40e1b002780998
02c5
fcb1c0cc6020dc0bfc
02c6
fd5c7f440001cbf5d5
02c7
02574046c02363f860
02c8
03ab40c70fd734070f
02c9
ff5aff8c101c87fe62
02ca
01d3007e1fe197f435
02cb
ff43ffa5f01af7fdea
02cc
00bd8014e01533fee1
02cd
011cc07040195c0369
02ce
ff38003df009200674
02cf
034140010022900a0d
02d0
0042c030700cdc00e0
02d1
fbb57ef36016900856
02d2
01363f9610170be00c
02d3
036aff97cfefd3ff9c
02d4
0161c09b0fdd981cf4
02d5
00938018c00dd80196
02d6
01238104303467fbe7
02d7
0054803cd0380805e3
02d8
ffa27ff6800603fc87
02d9
025240114fdbdbfcd7
02da
0076c0638ffbac00df
02db
005f802a7ff62c005e
02dc
016b7fa44ffadff727
02dd
ffd5401e8010c00c93
02de
0190002d50100c0191
02df
01d03f81aff1a80103
02e0
fff97ff96ff3a406b5
02e1
0064c034a00308011d
02e2
002c3ff3bff6b3fb42
02e3
00d68039f00a58056e
02e4
038400d0e0227c03fe
02e5
fe33bf3ccff8800568
02e6
fe03803e20149800a9
02e7
ffb07fe48004b00f89
02e8
00cb4068dff6100810
02e9
038b3fa4d01a8808d7
02ea
01efc01da03620044d
02eb
fb14ffd5b00ef00143
02ec
01d340e49020bff8b9
02ed
fdd70098302e2c0c4b
02ee
025b800bfff9140567
02ef
fe610150d03e6bfac7
02f0
fd750095700ba00017
02f1
fa5bfef0efed5ffc06
02f2
055d0113808e181915
02f3
006fc0051040500163
02f4
001bbf12bfc18bebd2
02f5
01ed80b27014d005d7
02f6
fdbc7f8210678c0f32
02f7
0158bffb4fef1bf3a8
02f8
f9e48146c088700668
02f9
fdc0ff9bff8f0fece1
02fa
fec47fd4bff74bf8e2
02fb
f9b1417cf06343fa53
02fc
fccd7f790024f3e089
02fd
fe41ffdf0fe6b3f42e
02fe
043302413fc373f592
02ff
014240905034d80da9
0300
00bbfd439fd44810fd
0301
0032fff6c0088801df
0302
fd387ecd4ffa1c02dd
0303
000fbfd5f0140ff65d
0304
fce63fa20f3e8c0573
0305
012b0094600e33f945
0306
fed1ff7e4f5d27fca9
0307
01444046fffcfc09bb
0308
fda5ffdbffafe80547
0309
ff3b7fe3bfeae4073e
030a
ff9e7f32703c9c0aec
030b
fe75c0090ffae006d3
030c
01b6c070aff07bf89f
030d
001bfffda01648073a
030e
014f3f80f006700288
030f
0225bfaabfd950033d
0310
fe284116101863fc11
0311
020880137ffbd80060
0312
fb06bf33c0471c0ec2
0313
04ad80aa80156c0788
0314
ffdc3f26cffafbf658
0315
0360404b000b60057b
0316
028fc0e39033900930
0317
fdbc80da8004f80ad2
0318
008900671016e00da6
0319
032a0099c012d40753
031a
ff4c7f7250299808c7
031b
035c006120163013bc
031c
0803403c605f700b3d
031d
01bc406a600f3c1eef
031e
03c6815bd07b381687
031f
07efff98a0109c0128
0320
fdd27fdf5027541106
0321
ff384089d021180e99
0322
02ab7f53d064e80948
0323
fc35beb72feb980d16
0324
fda8bfbb0fdbb7f39e
0325
01bdbff60fe92bf285
0326
fe187fe5afe877fad9
0327
fe8e3f8a0ff697ffbe
0328
014cc052e019640a02
0329
fe01ff574ff1481087
032a
068000d0f02c2c0f93
032b
0037bff3e034e0170c
032c
0320c169cff61bf3da
032d
fe450035e04d64105c
032e
00b34051f01e5bfd9b
032f
0094c0335056cbf6e9
0330
0252c0fc002f1bfa91
0331
00653fd80fe44ffe00
0332
0201800d0001fbfe10
0333
0189ffeddffb0bf590
0334
fce740bdf041201659
0335
00b67fc90fec0bf93b
0336
fec2bf709017900261
0337
00ed4003d018d00beb
0338
0199c0c46030dc0f0a
0339
ffb6006bf0259c0b5f
033a
ffb340606ff2780689
033b
00c981e07011a7fbf9
033c
fa4bfd87b011b7f635
033d
f3faff615f81ebd80f
033e
fef97f793f7cbfe57b
033f
0081407d50476ff02f
0340
fb9aff638ff6740094
0341
02f4c01c30069c0b4f
0342
fe127fa1b0275c0a17
0343
fcd8ffce701ab3f23e
0344
fddb80437019e80666
0345
02a68022bffba3f911
0346
fd22bf14efe22fed01
0347
fee33f930fd373f4ee
0348
021b40774ff2aff4f3
0349
fe3a3f8ad01438064a
034a
013e00979019780881
034b
fc0f0018602c840d1f
034c
ff553fd7d023e7e4f0
034d
01e280931029840692
034e
002c7cd8cf901c0609
034f
009fbfed0fed7bfbe9
0350
027f40c13025c80980
0351
f5c77eb2700a84055d
0352
00377fdc90464c1213
0353
006ec0591024a80604
0354
004bff1a5fa317f711
0355
0031bf972ffc2c2123
0356
fe123fb37ffbe3f29e
0357
03497ff81ff66bfc27
0358
ff783f6dcfe243f875
0359
fe93bebe8fc75ffb3a
035a
ff263f30f009740aaa
035b
fd9b7f736041ebfbde
035c
ffe0ff52401ea81400
035d
05ed7f2eafdd3ff5bb
035e
ff02ffbd40206ff40d
035f
fe5efed8cf8bc3f4d1
0360
0470bfc5700857f0b4
0361
0222c04ab036f00c5a
0362
0132bf4340357c122a
0363
fd1f3f55901a8c0cf6
0364
fe320116bfffa3ec00
0365
fed17fb1801f7c105e
0366
fe7e7fdd602f9400ee
0367
ffc00080ffeeaffe8b
0368
0183ffd32006600f81
0369
ff137fbdd019a801e5
036a
ff84802330685407ac
036b
ff9b405d1feb7bf9e8
036c
fdc13fe650167c0916
036d
fdf63fa0afee900140
036e
fe6d00159ff36007eb
036f
fda37fe580311001f5
0370
fb9a7e54cfa71ff981
0371
fe06fed48038fc036a
0372
0210bfe9cfe82ff9d3
0373
fc7e80479016ac072a
0374
01183faff0248800ca
0375
055880920007d0035b
0376
01288099e05de80c43
0377
fea58071e028e8009b
0378
ffbdc0ab501da40857
0379
ff413fb0f037a40715
037a
0359c05a3fd8a3fbc5
037b
fe5d40589fff07fe0b
037c
034740400fde3ff879
037d
ff50ffea9ff877fd52
037e
0446ff5fb00f9bf83b
037f
ff937f7310272804e8
0380
01163ffd5015f3fa6c
0381
02d08041000143ebc7
0382
030781041003dc0aa4
0383
0010c0bfb01154090c
0384
00db00e97013640628
0385
017cffc34ffe4ff28f
0386
fde680daffa71bf7b4
0387
fe3a7f0d1fc1cc02c6
0388
027b40710ff587f221
0389
ff5abf784024280ea0
038a
01e1fffc0fd82bfdfe
038b
01d2bf8d8020840407
038c
00388043efe2c808a5
038d
ff6ec0444ff2d403d3
038e
fe103f733fa3a7f9cb
038f
02d600a4201ae8016f
0390
fedb7fe5500df3f687
0391
fdd88099b023f8057a
0392
fe8d405bcfcf7ff128
0393
016bc01c0fd323f9ec
0394
059440903fd6a40171
0395
fe993fa93fd2cffa83
0396
001b00b9d001b7f6eb
0397
fe7c41becfee87f80a
0398
023a3fcaefe3e7febc
0399
020cc0bc8014f801d4
039a
029a40123ff83400f0
039b
fd9980be9005c016e0
039c
036bbf5dbfdf6bfcb8
039d
0169801af01d07fd1b
039e
ffdbc04d6fdfc003d2
039f
fefb802ecfde780c36
03a0
ff344006b010b7ff14
03a1
fdee80e6901de3f841
03a2
00c1bf9f300897fd6d
03a3
fc423f595ffa7c02c5
03a4
fa7a7f4a0fdd4be3e5
03a5
f85e3e5e8ff6cbe934
03a6
fe49bfc5d01b740a8a
03a7
021aff82b0299401a2
03a8
00473f85b0364bfc3b
03a9
02cbc06e2fe15bf941
03aa
fe5affde8fdac3fc81
03ab
fee1c0ba701f0c0367
03ac
031f40165fe653fdc0
03ad
ff05bfaa0016b00b3c
03ae
01d83fe72ff888054f
03af
008b7ff3403f7809de
03b0
02ca4090f0154804fc
03b1
019f005b4fe8fc02a4
03b2
012ec128affeac04eb
03b3
01db7fd7bffe87fe94
03b4
feadc05ff031a0010e
03b5
007ebf582fea87f2cc
03b6
04e88121b0187bf4c0
03b7
039ac0a8dfe6a80aa0
03b8
027fbea610276c0dfa
03b9
01c481167042b40ef8
03ba
0203412aa032a406aa
03bb
042600862fde7007f9
03bc
00f9c09c500c63fce3
03bd
fef2bf7a3fed3808ee
03be
fd5f40e45fdc3c0409
03bf
fd8e7f95fffd080e7f
03c0
0043c041d0080ffc70
03c1
ff5b80a45033c80de8
03c2
02d67fed2ff8ebf99b
03c3
034240b6e029b40ff8
03c4
ff220078003ae4079c
03c5
fe14c03a301067fd20
03c6
fd6c80424037900395
03c7
0354c07c900b4bf9ce
03c8
01bfbff46034cff8db
03c9
0021ffeb0fe1500daa
03ca
0066407cf0492000a4
03cb
037fc03b800e0c13d4
03cc
07d0826320482016e2
03cd
0a1100f8608618110c
03ce
031bc104705520192c
03cf
0282c0b26054080cba
03d0
fccc7f15e016680d1c
03d1
00a5ffa9efdb900e18
03d2
023ac0bca011400241
03d3
ff94bfdcaff9fbfc75
03d4
0308ffb7a000b3f97e
03d5
fedd8060201c180101
03d6
0119bf2e1fd6d3f4cc
03d7
ff8c7fa570347bfb8d
03d8
00c73ec6ffaa240c49
03d9
03fcc0146ff99bf690
03da
ffbc3f2c5faca7fb40
03db
04c63ffd207127f4d0
03dc
ff07c04ecff5080ac6
03dd
05e901e3404c7401e7
03de
023fc07bc0152c0913
03df
01843ff6704a7ffb55
03e0
05108039700af803c5
03e1
032340a97fb6740992
03e2
fc7741b62febec018b
03e3
ff3affdc1ff767faa4
03e4
0581ffdccfec70026d
03e5
fc66810b00263414f4
03e6
fe20ff6effd2b3f642
03e7
fbbefeaaffa2481254
03e8
f83a7eb30fcf37f2d5
03e9
028cbff17f96a3e18d
03ea
fbd97ef49056f000ff
03eb
f703beae0f1797d1c9
03ec
021efee5bf6223e16a
03ed
055f005d6015d80ae2
03ee
02f48071903788091d
03ef
036d012dc053280cad
03f0
02e6ff88605577f77e
03f1
0557c056a0539405dd
03f2
0279407dd02de0047f
03f3
01cbc19b601b8c14ef
03f4
025b41bb209d9c1c3a
03f5
ffa6c0cde035aff867
03f6
017ec0190018abff5a
03f7
00a3bfd63fe387fa37
03f8
fd9901003032c3fba6
03f9
ff0c001cf027c806cf
03fa
043600055ff1ec007a
03fb
fd33c0518034200d6e
03fc
008effc74fec53faec
03fd
06e38171b0330c029f
03fe
fda83ff37fd4d3faf2
03ff
fe437fe9efd733f916
0400
fd107ff79045100a7e
0401
033400682ff403f89b
0402
ff6800c2efde24053f
0403
00ba80ae0018cc00d4
0404
0303405fe043041091
0405
008f3fd46ffd0ffa10
0406
00504152002734007d
0407
01a8008c5017d4036f
0408
00714092602a0c0c63
0409
041ec02e501e2fff75
040a
02677fcb90242405cc
040b
016580588fd54410a5
040c
037440f9502c4407f1
040d
01930056d0243810ac
040e
fe13c06f5012cc0fd8
040f
032bc0d5c0248c0875
0410
01993ff6b07320017b
0411
02cd40099fe4280cc5
0412
03a100b1702fcc1065
0413
086fc0d7c039300a12
0414
0882c08c4013dc1533
0415
0743bff1507b20250b
0416
ff494103b087942b73
0417
02114086e043a013f5
0418
04317fd50ff2800549
0419
009d8149306ea01d3f
041a
ff484044701f280256
041b
07f6c2a52057d80155
041c
fe85bfc2afe717fcf1
041d
003fbf231fec97f7cd
041e
fef9bfea50e6000578
041f
feebff742005e7fa36
0420
fde17fbbcfe10ffc14
0421
f6cf3f894fe1c40b06
0422
0125ff90c006cbf777
0423
05c8fbe0502f9c05c0
0424
ff0b7ff2801dec1255
0425
f6ebff7b9026c4038e
0426
ff9ec11d60908400d3
0427
01ec7f8b6032b80269
0428
01888054001103ffac
0429
fed40067b01e0ff2a3
042a
fce53fc3800777ff1e
042b
ff47bfddf007e3feaf
042c
fec040665024500b18
042d
ffe6407ae03697fa17
042e
057b80481024e4048a
042f
f6003f36cff5d80eae
0430
feb4bf133fcf77ef5b
0431
00c6805e60213408ea
0432
035940ba401dc80854
0433
0163bf93a00e8413e1
0434
feac00d2803693f292
0435
01fb00d2afd8d02056
0436
07c6c136101aa40dec
0437
009dc08a1039682383
0438
01847f89c02304068e
0439
029dc11f207504065b
043a
0171bf329fe157fae4
043b
ff8b001290482c23ef
043c
ffb33fa8cfdd6bfa00
043d
fea5ffc2400ae7f923
043e
fd2ebf544ffc300468
043f
031d817d500f401ab5
0440
016a00dcd0356410a7
0441
04c580f91fdc1ffef2
0442
fef3808b0051180e1e
0443
ff9f009b702eabf7d6
0444
031500cb5010cbf950
0445
03d640b3001dbc02f2
0446
01a0403f8fdf0bf523
0447
026640abb031f804b2
0448
002f403420097805ca
0449
00bac087f02e73fb7c
044a
00f600cc4029c40bc3
044b
03a840c6c051c00820
044c
07ac410e405518054d
044d
03f8815fc029d40814
044e
04cfc036800a740de6
044f
ff9f41376feff01236
0450
fb5affd44012a40ef2
0451
fe5dbea63f9963f3f0
0452
fe75bf7c0fe8e7ef78
0453
fe2a3f5befd19c0840
0454
feae00688fd62c0e2a
0455
fe1d3f5d6fd78400fc
0456
fcd33f2b5ff79805bb
0457
fbd43f57bfc513fc20
0458
04db3f486ff237fcec
0459
fe51c01c9017cbfd03
045a
fca9815d505bf3fcd3
045b
00df805d50118fe7a5
045c
fda781afdfecb3fee6
045d
08f33fdc6ff734012e
045e
ff647f7df03727fa54
045f
01310056b00217fe0a
0460
ff2b416c203fdc0e22
0461
01783f65bfe3900763
0462
033dc09a0fe97012b9
0463
0420ffd07fad000dc4
0464
0237003c1ffccbfe2f
0465
fdc07f10c06f63f816
0466
fbbf42f1900a1805e2
0467
fc67c0513ff4c3f037
0468
f96dbe599fa123f98d
0469
060c0017300a07f7e6
046a
fe9d7ef99fbd0befda
046b
fd3680e3efed9ff3f2
046c
fd788134303c7c098e
046d
fd01406b604e53f9d0
046e
02ff802f803e70116a
046f
00ff40bef0302402a8
0470
041f8054404eabfccb
0471
0286007e3017dbf645
0472
01343ff8204c680911
0473
063c3fada007340d3d
0474
02adbf7d200d3c094a
0475
049a0065d005680623
0476
fd22008e500760181a
0477
017abfd8cfd3c8049d
0478
022e00e92ff0a7fc00
0479
015980372fe7d00734
047a
01220041afdd0c0305
047b
02a1c0aa3033c006ee
047c
fea3ffc46fef47ef76
047d
f9a7004bc03a9c1102
047e
ff61c04f901c07fb86
047f
ffdd005fd0162802cf
0480
00f20076e019dbf8b8
0481
021c008250041c0360
0482
fd327f5e9ff0cbfc66
0483
fde9ff113037180733
0484
03823f189033bc02b6
0485
02cfbfb8f01e6c0a6a
0486
026fc083ffd70ff83e
0487
011d01063041bc0aff
0488
02e67faa900b5008df
0489
fbdb408b3fe9f80779
048a
0227bfe21ff65407a0
048b
f82a3d95df3a67f54f
048c
fee53ee86fc7c3e551
048d
009300a2f03587e8e4
048e
fecfff4c2004d014c9
048f
0898ffe2dfefa803c0
0490
fe67ffe29fb2c010db
0491
fe7940078fd63bffca
0492
0613c0e12feb301240
0493
01f940800ffbeff9f7
0494
05c08327603b4c1139
0495
03193fd98fe3c3fd7a
0496
fe480127c01963f8bf
0497
fec5bf414fc9281869
0498
0012fe531fd0300dcc
0499
fe61ff555f9bf40b20
049a
fc500066f01c1ffa40
049b
00f93ebcdfe31bd3bd
049c
f64bffd4500458022f
049d
0232c0853fbe33ff7f
049e
ff3e3fcbbff0dff2cb
049f
008b3fe770198c043c
04a0
00b780b53ff42ffaef
04a1
01823fdc8ff39bfabd
04a2
ff69803ee01d87f87b
04a3
07414238e04c200ce1
04a4
04f94128d03bbc123c
04a5
fc89c07f0fcfac25c2
04a6
0216010faff53c02b3
04a7
01e900849fed8808ed
04a8
0279bf07902cdc0c3d
04a9
0152bfa25ff69008e6
04aa
0095ff3a2fdb3ffaa7
04ab
03c7bfdb9fdd93f3b7
04ac
02384073c0353013a0
04ad
04bc403f900434069c
04ae
01be00b0efd92c1699
04af
fd8c4067903f20011f
04b0
ff1f811a7022d3fd4d
04b1
0478ff1a3054fc06c0
04b2
00167fc8b05d5c1967
04b3
02cdbf9e6002d4100a
04b4
ff09bf85c04198158b
04b5
037640e07ff3dbf837
04b6
0293bfc560132c05bd
04b7
ffda80531026240bf7
04b8
fd313fc36005d00824
04b9
ff7e400b6ffbf3f98f
04ba
fd66c00eafe87ffd79
04bb
05f83f4fa05e83f610
04bc
0187c058dfee0c080b
04bd
049cff88dfd5f008ce
04be
fe4b7fbfefd4cbfa78
04bf
fdf2c0978024ac0535
04c0
0445c0358014ac0359
04c1
f81b7ec24fdd6c021b
04c2
ff10bf470fbe9fcab9
04c3
f21e7c427f965ff820
04c4
f8783d5a3f7fb3db9f
04c5
fc4f3f299fd8cbed90
04c6
fe3fff630fedbffabe
04c7
fe3b7ff2ffe4f3f677
04c8
0293c0a0ffd2a7f3d7
04c9
011fbfee5fe673fc97
04ca
037c4077f04f7001ce
04cb
01e9bfe09ff87bf94c
04cc
fe35ff08dfac0c1341
04cd
0164c0fd1f864c0336
04ce
ff0a00dc0fbb6be834
04cf
01b5bfa0104547f912
04d0
fdcfbf457004f7fb29
04d1
01f5ffd55fc97c0974
04d2
fb8d0078efe2dff89e
04d3
01fb806c6ff9e81e22
04d4
fd377f334ff5cc018f
04d5
058a7fa1cfef8ff885
04d6
fba27f6acfe6680748
04d7
fdec7fd8ffd8b3ec78
04d8
037e00e04014300dbd
04d9
0af6c233f0790c1cec
04da
fcd540235052d828bd
04db
0939c04f603eb40c07
04dc
08e3013f30682c26f1
04dd
02f740fa5fdc6817c7
04de
0189007d802fe411b8
04df
026c80cd40384c008d
04e0
042c80af6fec340d4b
04e1
fcb9ffa55015c4072e
04e2
03a24094efc597f482
04e3
003e0008102300088f
04e4
004440575018cbfd27
04e5
ff124106803147fcee
04e6
051600ca70166ff1a7
04e7
045f7fc0e01e3010c6
04e8
fec13fc45fe42c0a84
04e9
fd3ec01360084ffea1
04ea
0078c06140279c037d
04eb
03018147302138013f
04ec
0144007f801f2007b7
04ed
02cec108601b0406d4
04ee
fdf87f8840539c10c9
04ef
0026bf6a3fe867f2ca
04f0
030640951ff0fc06b0
04f1
01f38033a03613f399
04f2
fd3bc0c8402c480f58
04f3
058ec13c5037d41055
04f4
fd3d7f2d3fe4aff0d3
04f5
00fc0068f049981200
04f6
00bfbf3b8fbc07eeb2
04f7
038140f2f02acc06b9
04f8
fbf17e931fe7f4071a
04f9
fff18143305323fcc4
04fa
fa00fecd1fa18bf7a2
04fb
fb6dff57afcbb3f462
04fc
fd4c7ec82fbcc3e55f
04fd
facb3f7e501ca402db
04fe
fff0c0124fbbb7e3f2
04ff
01a9c05dc01d2c06b2
0500
098840ac4ff9d00229
0501
039040322fca83f2aa
0502
040101271018c4289b
0503
01384020e0568007ff
0504
060d80ab2017e40895
0505
ff043fd6c02f700f4d
0506
048d015040275800fa
0507
f9f83e4c1fedd4001a
0508
fe2d3f7b6fe9a7f26d
0509
f7e3bf9590071bfe80
050a
fb33bee0ff6b6fe44e
050b
008cbf0dffcdc3ee40
050c
03a7ff78804a80154e
050d
0625408ac0213c0f46
050e
0057c0a9d0172400a6
050f
04dd3ff6603323ffbf
0510
02dc80c390448c118b
0511
033fc08f303b6c0a8b
0512
fe9c008d10733ff835
0513
0372c093affc1bfb72
0514
00a8c05e8fe1fc1052
0515
fcbf7fb5bfd7dffe98
0516
fd4f00bb2fd78ff1f7
0517
01e74085f015a7f9fa
0518
02f37f81d00c240553
0519
01864034c02dc00bb5
051a
0577000ae04d93f56c
051b
fcfa4097c018d81191
051c
0435c0ec3024100723
051d
fe79c05820453009c7
051e
ffd1ffcc104b900388
051f
00bcc0ff9036700910
0520
04a14080c03ea8008e
0521
034b008f7012f41456
0522
00e240e7900abffb28
0523
fd0240551fb143e070
0524
fdd8c100cfd6dbee97
0525
fc283f147fd9dbf4b4
0526
ffcd7f857fb6e00b51
0527
fe30ff868fe3b8138d
0528
03337f7fb012e3f022
0529
0238ff3f103e500dea
052a
012900e6f0553c1bf3
052b
006f3fa47fc01ff761
052c
fe823f7f8fd467fe1f
052d
ff188200bfcacffdae
052e
ffc1c0ea405a140298
052f
fc9c425ffffa3c0eeb
0530
feb280771fd2301173
0531
031ebf1840862008e0
0532
fdf3bfcc003b93f46d
0533
05e100839ffc3ffb17
0534
001300285fe99c0c5d
0535
ff7bff93302d8024cd
0536
00263f9e404b88123b
0537
04938104e018f801f6
0538
f971fee2301e63ffde
0539
02130072dfbbdfe5d1
053a
02dd009ea04f07f7f1
053b
01fd80ca0fa4ebeeb5
053c
006740f5b01a6c085b
053d
02157fd0afe1a405a2
053e
fdca00c7b013981387
053f
00203f8eb027d00f4f
0540
040a8180afe46bfd9e
0541
ff12ffb8aff13c0ba3
0542
feaec0ad501ecff839
0543
ff5c3f96aff7f00149
0544
026e40848ff9300485
0545
01f440c05013f404c3
0546
ff3500d8704ce80ac0
0547
019f809730259bfbcc
0548
04788023a01ff00cb7
0549
fe5b80e9b029b00fda
054a
0438814a505b03fbfa
054b
febd406d5021c806c9
054c
06dc009a7fc7dbf750
054d
02be40f0401df40fd9
054e
0219c0d5e025e8132c
054f
0162ffcdc014700b85
0550
f96b7fcff0024fec29
0551
fdbffe786fdb77eb68
0552
001a7f3fbfd76bee8a
0553
fd6e40af8fe1e8003c
0554
fdd4ffdfa01abc00a7
0555
05bcc1ec7fecdbf77f
0556
046b4216206a2beb75
0557
01213fba000d1c115a
0558
0376807ab05f301227
0559
085381a78fddc40529
055a
0135c09df004c810f4
055b
fe7d409bdf9bd3fafe
055c
fdb2ff98cff14fee20
055d
ff5bff17ffc5afd823
055e
f8790148603e8c0a1a
055f
01b840bc0ffaebf9d5
0560
fe137fc8ffca0ff684
0561
03403f805f90b7f851
0562
ff73c050f02b640b5e
0563
010c40a31f7a7fd4f0
0564
f8ca7f6f3fe0d002ad
0565
fc587fd90ff5d01094
0566
011f4068cff44bf0e5
0567
041d0137e0426ff7ac
0568
fd34c1aee033a8126b
0569
01a1c0ad4033300a6f
056a
027fff6010082ffc6f
056b
04fb001ea01e080f5a
056c
01caff88efe3c7faaa
056d
067e4148203d13f929
056e
ffd73f16efd5affa23
056f
fef0bf5d9049dc05b1
0570
0529c035700313fbec
0571
03468132402098083b
0572
02880042504cd40d4f
0573
02c40165a02273f0fd
0574
04d500e46fe6cc09ad
0575
fc923f558031880512
0576
007bff887fd42fec55
0577
fc1f7ed23fddd806eb
0578
ffed4164c00a2bf469
0579
009a804adfb87c0cce
057a
00187fb51fefaffb56
057b
029100c20fed2c086f
057c
fd7b80b000299c02b7
057d
fd863efeb02ba00e4b
057e
0382c1a73fd153ee7e
057f
fd27febf2fca43fd88
0580
fdc77f4edfe68bf08b
0581
06f342b950765810bb
0582
fe4e7dc1cf6dbc11a2
0583
0d4cc278a00f5bfccc
0584
f44d7d698fd19812d9
0585
092740b73ffbabf8e7
0586
f7303d00ef9d9c18ed
0587
fe417f6b3fd65c070c
0588
031a40c27f68141f38
0589
fe5101639ff9580521
058a
02ba809e0fbe37e037
058b
02de80d3002a3c0f7a
058c
ff523f73bfe293ec32
058d
fe4b3f96cfe1380167
058e
00ae00272fe64fc7a5
058f
fd20fdbcaff9ac0581
0590
ffd4014d7fec18007f
0591
0279000c5ff6e3f070
0592
ff7c80062fc40fe8c0
0593
fcc53f586fb007fa8d
0594
03677fa27024c80bab
0595
fa45bea6ffebe80048
0596
fe31c15cb0397bfc55
0597
f875fdd2bf8eabe6fe
0598
01ebc06770362becbc
0599
02e0805380137c0997
059a
021dc0ace0358007b8
059b
0081c087efd8380a48
059c
002b3fd94009d0092c
059d
fec9814e4ff8140ac8
059e
fd51c0afd02bb81258
059f
044bc14fc077601610
05a0
fece0066102cfffd1c
05a1
fe47c08f101584075e
05a2
fe5cff274fb83bfb19
05a3
fe5c00f69fe74bf94d
05a4
010d803d903e6c1279
05a5
ff6700a57feba40ccb
05a6
00297fea2ffacc08b2
05a7
fe2f80084ff1dbf772
05a8
0396c0c4a033a407a2
05a9
0509bfcde018940cc0
05aa
0046005280219006d0
05ab
02f8c0d1304b0c06c8
05ac
ffd04077a0404bfe47
05ad
06a7014c7025080db7
05ae
03624225507c3017e2
05af
05300028cf98380b69
05b0
ff55ff792fee9ff546
05b1
034400952fb7580ae3
05b2
001f0085dfb8d401aa
05b3
f85900c4200e780385
05b4
07d7c0543fe3282449
05b5
02a33f9e2fdde41f7c
05b6
09347fe5b01c7c0961
05b7
fefbc12bb03d4c0f78
05b8
02f3bfbc103fc7f34e
05b9
fe8cbf5ab00c48108e
05ba
ffe5ff9caf70180c5b
05bb
fd6c7f217ff8e006be
05bc
fe71ff85dfc06bfa43
05bd
031cbfc0cfeb73f67a
05be
f9a83e5dcfee241356
05bf
0302ff83d03c9bfa5e
05c0
ffb1ff23ffd607e995
05c1
01bd00a2b02c1008c8
05c2
03a980c030269412e3
05c3
04d940711041d40928
05c4
012fc0d11020201201
05c5
022bbf7c30127ff934
05c6
03777fdda0058408d6
05c7
001a0064101ed005fc
05c8
02a1809c202d340f8e
05c9
049a7f8dc00924126e
05ca
09e78156503fd81077
05cb
fc88bf665fd7d82604
05cc
0be97f5a302ea0151b
05cd
066a01f1a093ec363a
05ce
fdebc0c47fde040120
05cf
02a540c6af9bafe90e
05d0
fdc17f39a02e7c0819
05d1
02ee80464fe99bfab1
05d2
0155c0898024f80465
05d3
fee7c12b0015e406c5
05d4
0339c0e59030f0062e
05d5
fae600f8f036540790
05d6
fa7dff87dffc240d4d
05d7
034afe20a01257e701
05d8
0521ff86afd543f62d
05d9
054e00154ff1e40bde
05da
026300a140463c2bab
05db
ff9080a700c280105a
05dc
03da01dfe0a7f7fcf5
05dd
009e3f9a3fee5bfcb7
05de
fc207fa79fee63fce8
05df
fe6a7f706f776be6de
05e0
fcf1bf66ff5383e527
05e1
fd35c15cefd0afedcc
05e2
fdcabfce5ffc800088
05e3
fbbbbed0efe547ff25
05e4
0087c0404fd667f5df
05e5
03f38005301f680ad1
05e6
01bf41d490647fff51
05e7
02fc80def02943fc50
05e8
03b18072c05a200352
05e9
0569013f102e1c177e
05ea
04cec155606d500c21
05eb
0106c044a0367ff9fc
05ec
0330bfafd0280c064e
05ed
ffb27fb8506ca417f9
05ee
076a013bf038cffbb9
05ef
022000757009ac0717
05f0
034341231feb800334
05f1
047ac0156fc8e80dc5
05f2
0281c0cc901a7ff4c5
05f3
fcd6c0c56004480d80
05f4
fe3b3fdf1021c41398
05f5
fee77fd5902febf5d2
05f6
ff2140482fea23f5d7
05f7
024d012ed02ce3fc03
05f8
042201218060700995
05f9
02fd018b902bdc0b92
05fa
04a5c0b54028fbfbe4
05fb
034980f350342c0aa7
05fc
055140580035281886
05fd
05cec09ef0461009e1
05fe
03df7fb8004ea007ed
05ff
ff31ff449fd400101a
0600
fa5abf438fc4d810c4
0601
ff6d3fe44fce87ea6e
0602
0403bfe61fe8c7e4a9
0603
029ec108f01273f4c3
0604
fd14bf958ff1aff3af
0605
019180a36fb8b3f780
0606
ff2a3f2d7fe56bfae1
0607
0818ffb100ac680c29
0608
020600a6eff83bf93d
0609
09964121c03e741a06
060a
06b9013e2ffce41cf9
060b
f8cb7f383049480807
060c
f59f7d4130388c11a0
060d
01aa3f043fb5bbe31c
060e
030380cd104f9c1135
060f
fa9cbe3f4f830be5fe
0610
f7f43e4f9f911ff48d
0611
049180131faa9bda87
0612
fc2f40d8b02ec40344
0613
0246803bf029680d39
0614
014b4039c02594070e
0615
00e580e1c014ebf0da
0616
fe4380056026900c2d
0617
02c900be2fe6d8052f
0618
051b7f8110517ffb9b
0619
0145bfcb2fd2540834
061a
03ad007fa01ee816c1
061b
00d2c09dcfd6340d31
061c
ff2d004e5ffb67fa5d
061d
01650047604b13fa2e
061e
fc60409a3fbc83f646
061f
027e7e8b603bfbfb41
0620
f6ac3f824f6e9ffb32
0621
078ac12defc2cbf053
0622
fd0b404d3040e03131
0623
06cdfeee9fbd07ec92
0624
fc66c30f80d79c34c8
0625
09e9828e7098d01467
0626
fcc34022a05ea43968
0627
0a5dc2a0d0a4441c9a
0628
06d0ff9010b5382888
0629
fe413fd6904da816f6
062a
026a407930413c0c96
062b
077c80ed5017a7f817
062c
0657ffac1fbeb3ffaf
062d
fe6ac13cb044e812ec
062e
fd84c0775fb86013b3
062f
ff2c7f026fafb3efba
0630
00eb3f2af01b7ffdf4
0631
030c7f2bc06cebf0ba
0632
fd4780e8703b640db3
0633
fcb74080e046a809d2
0634
0197c03ca026401326
0635
fbdb3fbc700fa409e8
0636
fec27fdf80149ff55a
0637
fedcc0e320113ffe99
0638
0709c15b7fec6c10aa
0639
ff3abfc2cff527f391
063a
01fcffd85038500f80
063b
06a7c177202ff41132
063c
03a77faddff0e4005b
063d
035bc0ee1020c41115
063e
018ec04cc025640620
063f
00bb80738fece40a59
0640
fe86bf367fc09404e3
0641
0a36c269d059a41a43
0642
04edc1e0301bfc1916
0643
063380f99fe6ec0f5f
0644
f87a41554033b8141a
0645
fdfcc10ed06d3c0a0e
0646
fe3e3db620671c0be0
0647
071a42827fdecffbf2
0648
fc8100a7cf67bfeabc
0649
fd2d7e6c702d302b33
064a
fbe27f44bfdba0056c
064b
fca13dbb2f7ec805ec
064c
fa557d0c2f7277fbd9
064d
fd433f991fe58ff545
064e
fe813e51ff9aa7f710
064f
00fb40185fbf47fcd6
0650
ffe23f4bbfbcf80db9
0651
f7bd7e780fe07bf230
0652
faefbde1ffda6fecc7
0653
0171c0afbfcd3fe7b7
0654
02570075801ba409a6
0655
051a8110103eec0b1a
0656
01d1810790288407ef
0657
fff13fbd8020f41561
0658
072b81c8a024181198
0659
0aa0c0a0101873faf0
065a
091a42cc302e3425c6
065b
ff48c0d7803bd3f141
065c
fed8c095804c83f63b
065d
ff11ff741015d3fb90
065e
00ccc0d52fe3f004c1
065f
05af80d7afe12bfadf
0660
01920106c028141ede
0661
033040d64049340900
0662
0452408bf02dac0ab8
0663
fc807f26400e080f6a
0664
0426809cef878be250
0665
fc143e8e5fcbb7f798
0666
fc63ff9e0ff06003f4
0667
082f40cfefbb93f32b
0668
ffb7fef2103a602a21
0669
007bbed4308c0c31b9
066a
fce2ff6bb03357fed3
066b
01d7004eefc3cbf5fd
066c
039cc018afd9a7f0ce
066d
00e97fd2e04f9bf257
066e
fe55ff0cffe6600247
066f
fe48beaa7fcc17ebba
0670
fb8f7f693093dbfc64
0671
0040819dffeefbec23
0672
055e7f5b5fb5abfb34
0673
fed640d2e013140fbc
0674
fc3400b66fed600b81
0675
fffb7f015fdd300416
0676
fd28fe1d6fc49ffa68
0677
ffa6811b70119c13f0
0678
0515400dbfec17fb46
0679
feb2018bb05c4c0d41
067a
05030207e0f56023d6
067b
ff833f67d0374ffd2b
067c
023bff3b905d4c17c2
067d
fda47ef48faa87efce
067e
0327c030efebaff94e
067f
fd93c0d46032e00ad0
0680
0167805ce039480cec
0681
0200c09f803827fbd0
0682
03ebff6c3ff8aff718
0683
fabf3c79bfb018111e
0684
fb173d7f2fe857e867
0685
fc12becaafd7fff598
0686
fe2bbf0c4fd2e7f040
0687
069a0125d033ebf6b6
0688
097481d7c033d00921
0689
06a981ae300db418b2
068a
feacc09e90992013ac
068b
02337eddefe988081c
068c
fe967f9b7fc657f7ae
068d
fd647d0f8fa4a7f3e2
068e
f9d63ffa3faab00489
068f
00e53f4a4049e3ec3e
0690
ff067f6fdf69f3f9bd
0691
fd59ff49cfd907e3d7
0692
04bdc115ffbb0ffb21
0693
0571ff696033281855
0694
fdd7818ae05f641045
0695
068780ecd03febf245
0696
03107f7fafb7f7f659
0697
02448096001833f6c1
0698
04ea7f74a042d3f977
0699
fd383f65efc9c808b1
069a
02e8bf01602a240c89
069b
033ac0da0fe8a3fabc
069c
ff247f51bfc7180cb6
069d
045480d3bfe77c02e4
069e
01b480b1e03f33ff62
069f
035cc076402ef805b9
06a0
065842e250a2500a0c
06a1
0684808a6043641f41
06a2
fcf0c1b3905bec1103
06a3
05ac00d4e05e0021a4
06a4
03d7bf7bf02a2010ba
06a5
05be3fb7bfcc9019cd
06a6
fc96ff29cfc0b7f1da
06a7
fddb00ab40176bf3a7
06a8
fb00bedca000bbe98e
06a9
01fa3ef34021f3ffd0
06aa
fc6ebf748fb73bd045
06ab
022eff490fc93ff67c
06ac
fd4fff04efc03ff838
06ad
fd1c7f889fb6dbf61d
06ae
fd85bf6b5fd133e41f
06af
f6e340db0fe763fa92
06b0
f8a93ec41f73cfe043
06b1
02c07df48f866febf0
06b2
02f98034103a8bf9f2
06b3
01f800a7dfe3741a45
06b4
0891c227d0507406e6
06b5
065c8116903cd0171a
06b6
0bd3817b6046480c81
06b7
00a2ff1ef0284c076a
06b8
fc213f76703b7432f9
06b9
062280816fd0f7f515
06ba
03288066d019a7fa7b
06bb
01e17fdd0fe09c00cc
06bc
03cf3f59fff76c0040
06bd
0288c1119ffeb808db
06be
fd29bf29d01804088a
06bf
03df00bb6032f7f78e
06c0
fab3c07950303ffbf7
06c1
fcbbbf9cffcf940d27
06c2
ff30fe22ff929c0d7b
06c3
fbfc41310071e42c59
06c4
061b030b005adc100f
06c5
04ef815befdfd3e94f
06c6
05eb0284206a4bf594
06c7
087f41503018d7d39c
06c8
064cc0091f1da410ab
06c9
f703fe0d9fd4ac137a
06ca
09367e6aefe7000e36
06cb
fed2007440370c14eb
06cc
00a0809b3075802a69
06cd
0568ff9920808c166c
06ce
0395bf6a7ffa042dec
06cf
fcd48100b02cac01ac
06d0
fe26808870485c0443
06d1
06b740a56fe91415e0
06d2
fcb18139203553f15b
06d3
fd8980498035fc1bf5
06d4
02d700686fe5b7f983
06d5
fe664080201417fa02
06d6
02b3feb54ff0e814ff
06d7
0192400cef71c40e54
06d8
fb9840532fd73807fd
06d9
fdfbbf76801b5ff8b5
06da
01ea00f090210c1476
06db
0409812d800f1c0c1b
06dc
0326bfd40ffb3c0452
06dd
035c4096a02463fe4e
06de
04dc3f832048e3f67b
06df
fc5bfef12fd783f4bf
06e0
fe17bf8b3fc48bf1ae
06e1
06107fc4efd827f557
06e2
05ce7fa9bfd6740d50
06e3
fe5bc0727fe687f60b
06e4
faa83f60605bc42e4e
06e5
007f7f7740acbbfcf4
06e6
02333fd3c057d02918
06e7
fdeec0b4004af80480
06e8
03eb015e3043c00523
06e9
0265811fafe1b7ef39
06ea
ff133f530074b3f5ad
06eb
09c040d8302c6406fc
06ec
fb5ec21c2fd4cc0d3f
06ed
0b773f365fba4bf325
06ee
fc9bff114fc1d40f9e
06ef
03023f513fbd47f333
06f0
01c97f6860194809af
06f1
faf240e6205a7bf8d3
06f2
fe654075402fb3f919
06f3
022bc0639ffaa806b7
06f4
fcd6408d503a3bfaae
06f5
0226ff1ca0204ffad4
06f6
05d1bf41efec7c0b32
06f7
0139ffb20fe850110f
06f8
fe92ff9b2044d012e9
06f9
03ca810a602d1811f4
06fa
0212c10b8002e80936
06fb
0461fefe903faff269
06fc
fd5a40fe7022dc0b15
06fd
0767c249105e780a9e
06fe
0724c0e53045dc1f2c
06ff
029800f00057cc2b4d
0700
03e5c0c3afd173ef28
0701
fe257f9b90065ffa81
0702
fd40fd691032c7f07f
0703
014f7fd820146ff1b9
0704
0998ff27a045001921
0705
04ae829c9023501fba
0706
0968420eb04c9ff9de
0707
fdc8c0b62fd1dbf0eb
0708
05a580441feb57fb0e
0709
fb4cff3bffce17e6ea
070a
f9ffbf159fa8a7e970
070b
03133fc09fc527f1e6
070c
fdc6c0bc70290c0f39
070d
020440e6303ff00c35
070e
037c80d42045b0103e
070f
035b004dcfe8eff6aa
0710
002a3ffb0fe81ffeec
0711
03094093bfe927f251
0712
fd853f878fca301290
0713
044a4147106527fd13
0714
08b58145afd794239d
0715
fe680119b07027f15f
0716
fd43ff7f9080cff633
0717
037f810c8024e01646
0718
012780ee2ffa140b52
0719
05b0c150f0489814dc
071a
04d740f29038d41484
071b
07e281ca207c600f33
071c
043cc1164027cc1100
071d
f9bc40565064dc2b8b
071e
078c8164308df006e0
071f
fdf77f988fc684171c
0720
fcb43f79f032ec1110
0721
fe4540b9afc1a7face
0722
fea1bfc0f03167df39
0723
fcb241633031400234
0724
04e241c0803887fe08
0725
050a0076c04bafef24
0726
fc76ffde9fd1a825fe
0727
00627e73907acc0b8f
0728
fe887f83300e93f151
0729
fc623e2f6fd61ff194
072a
039a3e308fb90be386
072b
00e2bf1bc01a500a91
072c
029440cd9020a809fb
072d
01bc3f44403d400a00
072e
fe7c0080904e080a1c
072f
fe2ac0c01006dff7e8
0730
fb6cbedfbfcd5bf3e4
0731
04b00054e0286ff9fe
0732
fd0c7f900fe7e3fb79
0733
0341befa2ff1440815
0734
fa753f098014880c40
0735
048cff25d03bc3eeec
0736
fb6afe204038bc184b
0737
060a4201f0995c0e11
0738
060082691077dbf6f8
0739
0637c10400601c198f
073a
f83f7ee7c02957f620
073b
fdb3bf063fdeafe3fc
073c
ff16013dff7317ef73
073d
fe6180095005f3f6d1
073e
fa26bf636fd52c098a
073f
002e7f261fb203f0de
0740
0293416ee06583f23d
0741
097ec1a4c073e00a22
0742
084640e3d04ed01964
0743
04167fda803fb80937
0744
fda3ff95e042780fea
0745
01b0c149705150174b
0746
03e63fe2504a100ee3
0747
0506c088efe708132e
0748
020d410800379ff8ba
0749
fedabf88cfc9dc0cd8
074a
ff6b4053bff42011f1
074b
044500c3403e1ffb2a
074c
02e6007a703e58140b
074d
0550c0cbc05ca41355
074e
fbcc809cffe0c41907
074f
fc55bf019fcd93e4da
0750
02ffc18680865816d7
0751
0cdd018cb0745c2700
0752
ffc93f71f070a01369
0753
fd2f021acfcddff22d
0754
0646c1656fd98bf6fc
0755
05ad01368fe5480ea9
0756
065380a3d01404175d
0757
0207bfd2ffedf7f847
0758
09fc8045c03e9011e8
0759
03f7419a0096d82159
075a
0699c1b7e0410809a8
075b
09da020e005db81bc7
075c
036ec071cff1dc1b6b
075d
02e8005f70433bf810
075e
02588099306de7f0b0
075f
028cc0bd1010280c00
0760
00e3c0fa202cd009b6
0761
01e640702ff297fa3e
0762
fbb7c0d1206c34062c
0763
fd98c112c0298ff673
0764
fdecbf66c0131bf6a6
0765
fedb80c0afd1f80bc2
0766
02f580e5804f081b5b
0767
fd697f34a01a401fdf
0768
fe263f6c7fafd7f4b8
0769
fb17fe868fe3bff81f
076a
fcf4fef97fa58c1085
076b
fc3fbf1f4fd03ff86b
076c
04bf3f91d02f3ff8e3
076d
068e01366047b806cd
076e
06bdc11880588c20d7
076f
04a8c15ec05c4408bc
0770
05b78147402e0c1b8a
0771
0463013de054b0156a
0772
fbf98101802b840d40
0773
fda3bf0d801f43fac4
0774
04a73facbfe53c15c6
0775
020b4089a0355809a1
0776
03c2c08a303b300fa0
0777
05a7c193efebf01143
0778
02e78158801e241395
0779
037480d900527c1028
077a
fe9b40d6905b980c99
077b
07fe4079101f100bda
077c
03d1c0f7302d681093
077d
08a2c18e505e0bea65
077e
04ee009bafc53c1247
077f
0a583f94b04b5c08e2
0780
06620284afe54c1535
0781
fd3f3e9da060900927
0782
f8aefed57fd26be6cd
0783
0bbb8218a083cfe65b
0784
fc8781509ff37fe86e
0785
fdeb40e34fe313f8e6
0786
fdc4bed37fe5e7edc5
0787
ff457f0eefbabbf818
0788
035a80ad7063540747
0789
037ec12300356c0e1d
078a
07eb3f740069d80cfc
078b
fdff80e6103d5c148e
078c
07a1821a0076981977
078d
028e40e030373c10f5
078e
03cc7f1460263c07c5
078f
03cec046102c940ada
0790
fcbc4050d00eabf553
0791
027d40c3e04fe3f288
0792
045c809f101a0011d8
0793
fcc73faf702ca3fcbc
0794
fc013e470fa3180bb4
0795
fe4fbfc6e06fdc1b42
0796
fc2180ed60822bf7cc
0797
08c78208efaea3e3c4
0798
fe4c431e70e1bc345e
0799
045c41a1f046bbe655
079a
fd1cbf0d408524198a
079b
07cac1ec2037b7f032
079c
06ec41286052581f8b
079d
fcea7f576028c3ff21
079e
035740d9601cd405db
079f
023d3f97102a87ea58
07a0
fcec80bf50297bfa60
07a1
07f3c0df9f9cbbe376
07a2
ff6d7fb5d0401c14cd
07a3
fc683fc3c02e200a3b
07a4
fb70014bcfc81ff965
07a5
0391ffb95021ebf40e
07a6
fcef4013a03047fdd5
07a7
023b00aca0567bf60c
07a8
0576ff14a027f00bc4
07a9
033480d070620813d7
07aa
01c20105004d3c0f18
07ab
04b3802bc036e81292
07ac
fdf67fa3dfd4a3f08c
07ad
fbb33f464fec8be66b
07ae
045eff82ff81e3f413
07af
fed100a9ff9717daaf
07b0
fe2580fe502d57dda8
07b1
fda03f429056e8230e
07b2
095c03abf05d17f8fb
07b3
040ac149e040c822b7
07b4
038c40732fe020113c
07b5
06a8c0af0fcbe3f75f
07b6
024bc08fcfde2819e7
07b7
fd747fc72052740a72
07b8
fe3cbf1cc0345ffd60
07b9
fe40ff6aefcf2bf59c
07ba
04ac40deb0452ffa65
07bb
fb8f8127d0230c0c14
07bc
fe5740b13fdf1ff368
07bd
fe624166b06554037f
07be
04d18128004cdc0f3f
07bf
025900e660367815c0
07c0
018b41887fcbebf487
07c1
fbb8010cafbd9ff73f
07c2
fdc8005b3ff507e13c
07c3
01b33e9f4fc7800fa6
07c4
0bd28400d0689c0b64
07c5
0442c1cfa0437ff03b
07c6
fd7abfcacff443f278
07c7
fc3bfce70044381f3a
07c8
fbb4fe0fff3c300d0a
07c9
06e53f179068cc1979
07ca
0370419850908c30b6
07cb
08fc41d550d61c33ef
07cc
057042b260763c2150
07cd
fe5a3f5600346c099f
07ce
fdbd7f35d037580c61
07cf
fdb57fe3901d97f80c
07d0
09d8817e4ffe1be8ee
07d1
fd497f223fed90111d
07d2
0308bf152fd6bbf70c
07d3
01b2ff3fefdce41a74
07d4
fc1480c6e02e97fbcd
07d5
02eb3f899fb68ff575
07d6
041cc134004e6c0fe0
07d7
fb2200dd4015fc0b63
07d8
fda701552fd45bebc8
07d9
fdc93ee2efc82ff4db
07da
03c53f1a6fc74fef8e
07db
0756c121f03edc0e48
07dc
fd50beb17fe91bfbac
07dd
fe6ebe8eafe0b7f12c
07de
06ccff339029ffedbe
07df
065f011c604243f4e5
07e0
060b023150685c130f
07e1
0cb342d7408a8c17c8
07e2
06cf40dbf072a41c96
07e3
062a01694047b415ad
07e4
ff62bf1910163ff371
07e5
045e0092d02e380fc3
07e6
fe9e80e7efcb07f7e9
07e7
05b1c1af6fe3cffa56
07e8
01d381e75072d41099
07e9
072dc09c002fa01084
07ea
04e4fefdbfb9d40e6c
07eb
fd9aff378ffb100bd8
07ec
fb45c0994fab6c09eb
07ed
06f741196fb7a7e684
07ee
fe9aff6ec0272c0863
07ef
05e7c16cefe3d7e965
07f0
053b81d1cfefa0129d
07f1
045d409cc08640064b
07f2
fc5d01180066e8160a
07f3
08de013ad063201c48
07f4
04ff01dd00742024e8
07f5
008000ce6035b40cb9
07f6
043ec0a49016140ebf
07f7
03a53fb12030c00986
07f8
0281807cc033cff9ae
07f9
042901351040b00c12
07fa
02990095b048b81384
07fb
022d80f4907bcc0df0
07fc
fad6c1027057ec0654
07fd
fb57ff5a8f9de3e6ef
07fe
fd4abf8fafd4600e76
07ff
fe3a8176301643f354
0800
fe58009630798009f7
0801
0292806f7f8a0ff670
0802
fcd7c10f7fea03e302
0803
f73680b77044affb27
0804
fdaf414d3fe35bf2e5
0805
05067eafdfd16bf541
0806
0528c181505e9c1081
0807
03797f35efccb02013
0808
033f40baf00ca40a29
0809
03f1007f4019c00dd5
080a
fb8b7ed700224bf158
080b
0305bf357fdc57ed1c
080c
002b40abe02c700e8d
080d
f9297cc1af721c1919
080e
f36e7bad2fbd8bedfc
080f
f590fe2a3fe247d485
0810
06943f55ffac53df5e
0811
fafbbf4af02efc0b16
0812
05aa7eb73f9657e1d9
0813
02d6ff326fe9dc0438
0814
fdf7822c3fc803f67e
0815
fab77ec04fdc4c1357
0816
04707f729fe4a3f0e6
0817
05cbc19a40648009da
0818
08cc41e1b0723c20ed
0819
fdfbc13c901c58166e
081a
fdc8812f00371c0e4a
081b
044940b7102d23eeeb
081c
03787f297fea640fe3
081d
030a80f21025ac0c92
081e
01fd7f53efef5bf6b8
081f
051641022038ebf7f6
0820
0591c142c0191410a0
0821
fd0e7eeeafb62c0eb5
0822
0561bf507fea3bf13a
0823
066e3f362fe6781157
0824
03ef429f9039d41076
0825
05c543ad90304012a8
0826
061682a0c0141811b9
0827
faf902328022a008f2
0828
fb9bc106403afbf850
0829
f346bf94af8d77cc10
082a
fccabe216fce33e7d7
082b
04be3f2bf059280ddf
082c
02aebf319fe8b7fa34
082d
04a60105b068b00d98
082e
fe7240df705e0c0fec
082f
fc12ff4f1fc4080da7
0830
fd0bff625fd95bf765
0831
047300d01049d3f9a5
0832
0237bf42a086ec2551
0833
fd9e414b208da810b9
0834
fd587ee130442bf3f5
0835
0649c1380fd613f07c
0836
041300f8b06dd80370
0837
fbb47e61e03e100570
0838
027b81860fe0000d51
0839
03c140a9b03c440ae5
083a
fbe7fe651fe58bfc01
083b
f84abdb89fe643f1af
083c
0dac04dd3100801786
083d
fa5f82d79fea1fe07c
083e
fa88ff1e7fd5e40b6d
083f
fc77ff39503973ee84
0840
fd0981a91fce07f38d
0841
068681bb0fbcec0f85
0842
036140da10514c138c
0843
02adc0874032281d92
0844
049f80804029ac0693
0845
055b013060479811fd
0846
fc2bbf8a5022a80897
0847
045e80b03fc91fe79c
0848
0458815f8023e00c1c
0849
043e014b904a9ff418
084a
0d50c19d9fb6200ad3
084b
06fe822bd061381d84
084c
0a7c418e10548c11ec
084d
063bc295e056a018aa
084e
fa373f2de06f7c1f1e
084f
f78d4082efbc0fecb3
0850
fef4c0d5afde540d3e
0851
fe608204b0278bf969
0852
fe83022f5031602b40
0853
01f53fa94075f405d2
0854
058500e96071dbfa5b
0855
fd81ff978fc6181069
0856
0509011d402e4c12df
0857
041240bf8030b01146
0858
fcc2826af079241c07
0859
fc6cc069703523f5af
085a
0317c0a93fd943f9cc
085b
fe0b812e1fcb6bf014
085c
fd624135302baff7d1
085d
032200c24fed481528
085e
03d8c0bed025c42097
085f
07aec0e1afe5e80889
0860
043480f7ef91dfe7df
0861
021b3e365f768bf28e
0862
f5b2c11ff067e81cda
0863
03804293f06747e5a3
0864
0aa502081fd157cc1d
0865
07783ddd4017041108
0866
fcc580767fcffc12a1
0867
02f641962fdbe418a7
0868
fdf400841055bc0a58
0869
046a4183205a482251
086a
fe17c0bd0029e80f9f
086b
fd83c0e57044a8144f
086c
05874180306b84185d
086d
04e701e6c07b181a84
086e
0630c0acb02c240915
086f
03b000cd7075b424a0
0870
0704411bb0994812b4
0871
fcdb80838fe5f41793
0872
047fbf72d02ae41970
0873
038c01936ff75c08d2
0874
05698144903aec07b9
0875
05fec14f9054280c33
0876
053581eb2fd028152b
0877
05b140fb1019b3fa6e
0878
fd48810d3fd35409c1
0879
fd17c132b05d940b67
087a
fdf23f5b3f91fbf612
087b
067afe6cb074600662
087c
feb443685050d01f21
087d
fd7b3f0a8fd8642574
087e
fdb2bf09a02d380f06
087f
0c683f6a506e841222
0880
fd7bc0f2cfd6dff7e2
0881
043c40d32039d00b50
0882
03857f273fd1280fe4
0883
0879012cf04abc10b3
0884
fe4700ebdfdd340b97
0885
fd6900a380377bf33f
0886
06f3c0e00019cbfa09
0887
0328410570472bf1cb
0888
f6f63d9600207411c9
0889
fc127ec05fb58be598
088a
04377f0dbfb327e39d
088b
fcba3f1e4fda0414d9
088c
074aff6ba08d7bf529
088d
05a283bed0f9d811f5
088e
fae03ee960ac4c1a2d
088f
f80b3ca7afdc37f50d
0890
fc87fdcc9f4a6bf142
0891
fbea7f49bfc1c80d74
0892
fc5f00919fea540d44
0893
fe29c161efad3beaa4
0894
01d47f04d02de7f508
0895
fccdc208907273f77b
0896
fda0c189e0a7b82bf5
0897
01803f17efdfac0700
0898
02cb00c3b04927f6ee
0899
fd1141000054b411d9
089a
fd90feba205d381658
089b
fac57e596fb12ff622
089c
05e2014acfd25ff946
089d
feacbe6ff05cdc426a
089e
06694403e0c4482344
089f
0dcf3e1d106cf00c3f
08a0
089fc0e81fcb341958
08a1
fda87f881fc00c07fb
08a2
fd1ffecda0473ff2bd
08a3
fd87ff19efb793f823
08a4
0393bed540408c0ce3
08a5
fd13ff7b0fe013f4a2
08a6
089680aacf7c9fe683
08a7
fdc7bf73202a67f63d
08a8
025b3f436fdef3fb35
08a9
fd39bf4aefc9880cdf
08aa
fb20fd913f7c7fdfc9
08ab
fab73e3d0f2797cea0
08ac
04c97ee59fa8b7db36
08ad
fafe3deea0565c0d94
08ae
fa70c0b2303dcbe5f7
08af
fb0dbeccdfa563ed3d
08b0
f9833f64afda33f89d
08b1
03b240e1f033d4128e
08b2
1409846190c35c283e
08b3
085981e4409d184bfa
08b4
0b9c81f7009a8bed7a
08b5
023680c95fd2643e86
08b6
0498c0aa5049b00e28
08b7
01e04152a020c008b9
08b8
ffc100879ff0ac1156
