0000
0d36033c007c378eaa
0001
f50a04d60f3f941132
0002
e9c3bb219e82b7a57c
0003
0be1bc83aeb4440c7e
0004
0eb13b46c0d08819c0
0005
0482c1af9095e7b37f
0006
e74a7e923e79801ec2
0007
e99d7a2c3113880e24
0008
f79c81e40ec8d02f99
0009
f6f3bc5570d5582af3
000a
09ac04918efba83c04
000b
0eee3ffddedef3b1ff
000c
0fc5fbabdf7c2c3fd9
000d
f83abb7040afd7c2a1
000e
0228ba236f12d7e4cd
000f
e815f8bec0ba40512b
0010
e8043a88a18d97ec79
0011
11884413d03da423f8
0012
0f96426c010fcfcf1c
0013
fd30fa56ef5e184e33
0014
09ec4053e108a01214
0015
0fbb3f66708d13b1e0
0016
ffcc799f40e0702cc2
0017
0bf904c18e80b3f468
0018
fac4fdf2af6387a38a
0019
014ec34a01275468a0
001a
ebd7be591fd6d7d64e
001b
e988047561212bc5d0
001c
01e8ff2a3f96b039ac
001d
1181fa287f4f6c246d
001e
fa56c3bd00f5abb370
001f
14fe7c5c4ed3981d36
0020
e91141e85149a83234
0021
0b5d7d3fef42f82e86
0022
ec0e7b75601703d305
0023
e97a7a480fccefb13a
0024
e67c7eafa13540142d
0025
f6b27d0cbfa5f03aee
0026
f7a7fd97df54e03aa8
0027
070dc59a1ec0d40380
0028
e8d900e310d177c98b
0029
05a8c2827f38a7dfc4
002a
fae6042a7de8cb9e5c
002b
eed278b52ee88c12ee
002c
e46b421aa1358fe658
002d
02f742da0117703899
002e
f33b03bc81110825f2
002f
f8bb0243c0b8c81dad
0030
0efdc38b30e487afe6
0031
f840fab6ae11c023e7
0032
1754fae7bf25d41ec9
0033
0704049610e8601566
0034
083d7b626fa5800bf0
0035
1c6ac347605717e14d
0036
f389829bdf497ff87d
0037
f2d03d100f55a3eef2
0038
08b8467590aefc1932
0039
f1ab0007ff412bf86c
003a
10cb79af8e77f7e0c0
003b
f0233a03dec1c7df03
003c
ec8481ce80cb87c519
003d
0eb67c4b8ecb581d04
003e
07cac108a16750207c
003f
f6ca3cf88e9063b38e
0040
fa773c7aa10af35f35
0041
14a2c3e1a0fc7bf8a6
0042
0a4a42a72fb153fe75
0043
fda0c4371e15cc48d2
0044
02d936221143e80c43
0045
ecf142ffeedf6fe9fd
0046
14c58122a01db7972d
0047
083b389630dacf5f42
0048
1200400c00c9dff475
0049
0c3efd983ef9104252
004a
06677cbf6e3f5c1e39
004b
e9a3440f509e38242d
004c
f3c23f30b0e6fb8109
004d
fe857cdda0dff44ee5
004e
f8a63aa99066a78b3a
004f
eec43e14e10f202db7
0050
f528407b80e85bdb4a
0051
0fc63c353e5a283ab1
0052
f653fd581f6ee821bc
0053
f2fa82c69eab0833b9
0054
e6487edb3ed19fe0b6
0055
ea95427ba0c7b031f1
0056
e66c42577039f03102
0057
f7acc225cf3c53a79f
0058
e29b40d150f3b85505
0059
f4e87f849f53afe974
005a
fd0f847f5fd43fba78
005b
1006fa84313d67ac96
005c
fb0b45f43ea2884efc
005d
04d1fec0aff5bc2e2b
005e
14f1fd3990a257a9e6
005f
fc5bfbf2a02bb85538
0060
0133c173f053ebc163
0061
ef407e9c212c3c34d0
0062
f5cbbbeb60c68bf25d
0063
03f9408160bb9b9cca
0064
deb038b3bfb0d7bf9c
0065
165944e4d0620c26aa
0066
1337423a2fd18f9ca1
0067
05a440ed5e6ceb786c
0068
08fafb9600aee035df
0069
112dc54b4fb74fe0d2
006a
f40841e93f271ba553
006b
ffc176bbb000d84b8d
006c
02f73763d0418c00c9
006d
e68ff72d604f580a16
006e
0e5abb39ff34841aa3
006f
0b7878804065282c7c
0070
037f3a5b1fa2ebd8ce
0071
0e5484b22086dc3b70
0072
fd2b3b658f65dbb452
0073
03cf75a6a0a2781a42
0074
eb52f9c8706283b6e5
0075
fd5a7b60de6c6fd905
0076
f9c441df1e11041c9d
0077
eafbfc25cf782fcbc0
0078
08dc7d8fefc61437af
0079
f69644f920e2384e98
007a
ed14ff57110b042601
007b
122703dd2f5277fe7f
007c
0000000000000039af
